const unsigned char model[] = {
  0x1c, 0x00, 0x00, 0x00, 0x54, 0x46, 0x4c, 0x33, 0x14, 0x00, 0x20, 0x00, 
  0x1c, 0x00, 0x18, 0x00, 0x14, 0x00, 0x10, 0x00, 0x0c, 0x00, 0x00, 0x00, 
  0x08, 0x00, 0x04, 0x00, 0x14, 0x00, 0x00, 0x00, 0x1c, 0x00, 0x00, 0x00, 
  0x8c, 0x00, 0x00, 0x00, 0xe4, 0x00, 0x00, 0x00, 0xf8, 0x14, 0x00, 0x00, 
  0x08, 0x15, 0x00, 0x00, 0x0c, 0x20, 0x00, 0x00, 0x03, 0x00, 0x00, 0x00, 
  0x01, 0x00, 0x00, 0x00, 0x04, 0x00, 0x00, 0x00, 0xfe, 0xe9, 0xff, 0xff, 
  0x0c, 0x00, 0x00, 0x00, 0x1c, 0x00, 0x00, 0x00, 0x3c, 0x00, 0x00, 0x00, 
  0x0f, 0x00, 0x00, 0x00, 0x73, 0x65, 0x72, 0x76, 0x69, 0x6e, 0x67, 0x5f, 
  0x64, 0x65, 0x66, 0x61, 0x75, 0x6c, 0x74, 0x00, 0x01, 0x00, 0x00, 0x00, 
  0x04, 0x00, 0x00, 0x00, 0x90, 0xff, 0xff, 0xff, 0x11, 0x00, 0x00, 0x00, 
  0x04, 0x00, 0x00, 0x00, 0x08, 0x00, 0x00, 0x00, 0x6f, 0x75, 0x74, 0x70, 
  0x75, 0x74, 0x5f, 0x30, 0x00, 0x00, 0x00, 0x00, 0x01, 0x00, 0x00, 0x00, 
  0x04, 0x00, 0x00, 0x00, 0xd2, 0xea, 0xff, 0xff, 0x04, 0x00, 0x00, 0x00, 
  0x0c, 0x00, 0x00, 0x00, 0x6b, 0x65, 0x72, 0x61, 0x73, 0x5f, 0x74, 0x65, 
  0x6e, 0x73, 0x6f, 0x72, 0x00, 0x00, 0x00, 0x00, 0x02, 0x00, 0x00, 0x00, 
  0x34, 0x00, 0x00, 0x00, 0x04, 0x00, 0x00, 0x00, 0xdc, 0xff, 0xff, 0xff, 
  0x14, 0x00, 0x00, 0x00, 0x04, 0x00, 0x00, 0x00, 0x13, 0x00, 0x00, 0x00, 
  0x43, 0x4f, 0x4e, 0x56, 0x45, 0x52, 0x53, 0x49, 0x4f, 0x4e, 0x5f, 0x4d, 
  0x45, 0x54, 0x41, 0x44, 0x41, 0x54, 0x41, 0x00, 0x08, 0x00, 0x0c, 0x00, 
  0x08, 0x00, 0x04, 0x00, 0x08, 0x00, 0x00, 0x00, 0x13, 0x00, 0x00, 0x00, 
  0x04, 0x00, 0x00, 0x00, 0x13, 0x00, 0x00, 0x00, 0x6d, 0x69, 0x6e, 0x5f, 
  0x72, 0x75, 0x6e, 0x74, 0x69, 0x6d, 0x65, 0x5f, 0x76, 0x65, 0x72, 0x73, 
  0x69, 0x6f, 0x6e, 0x00, 0x15, 0x00, 0x00, 0x00, 0x10, 0x14, 0x00, 0x00, 
  0x08, 0x14, 0x00, 0x00, 0x78, 0x13, 0x00, 0x00, 0x58, 0x13, 0x00, 0x00, 
  0x3c, 0x13, 0x00, 0x00, 0x2c, 0x04, 0x00, 0x00, 0x1c, 0x02, 0x00, 0x00, 
  0x8c, 0x01, 0x00, 0x00, 0xfc, 0x00, 0x00, 0x00, 0xe8, 0x00, 0x00, 0x00, 
  0xd4, 0x00, 0x00, 0x00, 0xcc, 0x00, 0x00, 0x00, 0xc4, 0x00, 0x00, 0x00, 
  0xbc, 0x00, 0x00, 0x00, 0xb4, 0x00, 0x00, 0x00, 0xac, 0x00, 0x00, 0x00, 
  0xa4, 0x00, 0x00, 0x00, 0x9c, 0x00, 0x00, 0x00, 0x94, 0x00, 0x00, 0x00, 
  0x74, 0x00, 0x00, 0x00, 0x04, 0x00, 0x00, 0x00, 0xa2, 0xeb, 0xff, 0xff, 
  0x04, 0x00, 0x00, 0x00, 0x60, 0x00, 0x00, 0x00, 0x10, 0x00, 0x00, 0x00, 
  0x00, 0x00, 0x00, 0x00, 0x08, 0x00, 0x0e, 0x00, 0x08, 0x00, 0x04, 0x00, 
  0x08, 0x00, 0x00, 0x00, 0x10, 0x00, 0x00, 0x00, 0x24, 0x00, 0x00, 0x00, 
  0x00, 0x00, 0x06, 0x00, 0x08, 0x00, 0x04, 0x00, 0x06, 0x00, 0x00, 0x00, 
  0x04, 0x00, 0x00, 0x00, 0x00, 0x00, 0x00, 0x00, 0x0c, 0x00, 0x18, 0x00, 
  0x14, 0x00, 0x10, 0x00, 0x0c, 0x00, 0x04, 0x00, 0x0c, 0x00, 0x00, 0x00, 
  0x8f, 0x3c, 0x90, 0x46, 0x07, 0x1b, 0x68, 0x93, 0x02, 0x00, 0x00, 0x00, 
  0x02, 0x00, 0x00, 0x00, 0x04, 0x00, 0x00, 0x00, 0x06, 0x00, 0x00, 0x00, 
  0x32, 0x2e, 0x32, 0x30, 0x2e, 0x30, 0x00, 0x00, 0x0e, 0xec, 0xff, 0xff, 
  0x04, 0x00, 0x00, 0x00, 0x10, 0x00, 0x00, 0x00, 0x31, 0x2e, 0x31, 0x30, 
  0x2e, 0x30, 0x00, 0x00, 0x00, 0x00, 0x00, 0x00, 0x00, 0x00, 0x00, 0x00, 
  0x58, 0xe1, 0xff, 0xff, 0x5c, 0xe1, 0xff, 0xff, 0x60, 0xe1, 0xff, 0xff, 
  0x64, 0xe1, 0xff, 0xff, 0x68, 0xe1, 0xff, 0xff, 0x6c, 0xe1, 0xff, 0xff, 
  0x70, 0xe1, 0xff, 0xff, 0x74, 0xe1, 0xff, 0xff, 0x4a, 0xec, 0xff, 0xff, 
  0x04, 0x00, 0x00, 0x00, 0x04, 0x00, 0x00, 0x00, 0xfd, 0xff, 0xff, 0xff, 
  0x5a, 0xec, 0xff, 0xff, 0x04, 0x00, 0x00, 0x00, 0x04, 0x00, 0x00, 0x00, 
  0x01, 0x00, 0x00, 0x00, 0x6a, 0xec, 0xff, 0xff, 0x04, 0x00, 0x00, 0x00, 
  0x80, 0x00, 0x00, 0x00, 0xb3, 0xda, 0xc6, 0x40, 0xf1, 0x59, 0x75, 0x40, 
  0x3d, 0x88, 0x26, 0x40, 0xd1, 0x6d, 0x3f, 0x40, 0x73, 0xc4, 0xa3, 0x40, 
  0xec, 0x53, 0x9f, 0x40, 0x0b, 0xd3, 0x71, 0x40, 0x4c, 0x53, 0x65, 0x40, 
  0xb4, 0xdb, 0x99, 0x40, 0xbb, 0x87, 0xbf, 0x40, 0xb4, 0x33, 0x4a, 0x40, 
  0xee, 0x01, 0x59, 0x40, 0xf4, 0x39, 0x4a, 0x40, 0x06, 0xf4, 0xe5, 0x40, 
  0x2e, 0x2f, 0x94, 0x40, 0x0f, 0xbe, 0xf0, 0x40, 0x75, 0xd7, 0xbf, 0x40, 
  0x58, 0x04, 0x4d, 0x40, 0xc2, 0x41, 0x47, 0x40, 0x7a, 0x16, 0xd6, 0x40, 
  0xf1, 0xee, 0x62, 0x40, 0xaf, 0x47, 0x3a, 0x41, 0x04, 0x81, 0xea, 0x40, 
  0xe3, 0xbc, 0x07, 0x41, 0xbd, 0xe6, 0x3c, 0x40, 0xc8, 0x19, 0x57, 0x40, 
  0x10, 0xd3, 0x82, 0x40, 0x55, 0x05, 0x87, 0x40, 0x4d, 0xa6, 0x75, 0x40, 
  0x85, 0x4e, 0x8d, 0x40, 0xe0, 0x36, 0x40, 0x40, 0xfe, 0xb3, 0xba, 0x40, 
  0xf6, 0xec, 0xff, 0xff, 0x04, 0x00, 0x00, 0x00, 0x80, 0x00, 0x00, 0x00, 
  0xab, 0xbf, 0x37, 0xbf, 0x26, 0x24, 0x31, 0xbf, 0xe3, 0x5e, 0x85, 0xbf, 
  0x96, 0xcd, 0x0a, 0xbf, 0xc5, 0x30, 0x42, 0xbf, 0xf0, 0x11, 0xa8, 0xbf, 
  0x87, 0xef, 0x6b, 0xbf, 0xd7, 0x97, 0x56, 0xbf, 0xb6, 0xe7, 0xa5, 0xbf, 
  0x24, 0xdf, 0x1d, 0xbf, 0xf4, 0x22, 0x61, 0xbf, 0x97, 0xe3, 0x21, 0xbf, 
  0x7d, 0x2e, 0x29, 0xbf, 0xdc, 0x53, 0x23, 0xbf, 0xcc, 0xac, 0xd7, 0xbe, 
  0x35, 0xf8, 0x3a, 0xbf, 0xa9, 0xaa, 0xbd, 0xbf, 0x6e, 0x12, 0x5c, 0xbf, 
  0xb4, 0x94, 0xf5, 0xbe, 0xae, 0x7a, 0xe2, 0xbe, 0x4f, 0x1e, 0x9e, 0xbf, 
  0x0b, 0x57, 0x3c, 0xbf, 0x22, 0x49, 0x1d, 0xbf, 0xa8, 0x54, 0x1b, 0xbf, 
  0x18, 0xb0, 0xce, 0xbe, 0xba, 0x2d, 0x6a, 0xbf, 0x63, 0xc2, 0x0e, 0xbf, 
  0x35, 0x3c, 0xfa, 0xbe, 0xcf, 0x9f, 0xf7, 0xbe, 0x08, 0x7a, 0x56, 0xbf, 
  0x87, 0x4b, 0xde, 0xbe, 0xbc, 0xdb, 0x4e, 0xbf, 0x82, 0xed, 0xff, 0xff, 
  0x04, 0x00, 0x00, 0x00, 0x00, 0x02, 0x00, 0x00, 0xb5, 0x12, 0xa0, 0x3d, 
  0xc8, 0x30, 0x6e, 0x3e, 0x8b, 0x9e, 0x23, 0xbd, 0x05, 0xb5, 0x5a, 0xbe, 
  0xce, 0x0a, 0x1d, 0xbf, 0x7a, 0xdf, 0xf7, 0x3e, 0x72, 0x80, 0xa4, 0x3e, 
  0x9b, 0x27, 0xd5, 0xbe, 0x5c, 0x9e, 0x88, 0x3e, 0x14, 0x9a, 0xda, 0xbe, 
  0x11, 0x13, 0xa4, 0xbe, 0x0b, 0xbe, 0x79, 0xbe, 0x99, 0xbe, 0x32, 0xbf, 
  0x98, 0x07, 0x5c, 0xbf, 0x2b, 0xde, 0x9d, 0xbe, 0x6e, 0xb3, 0x2a, 0xbf, 
  0x50, 0x80, 0xc0, 0x3e, 0xda, 0xf8, 0x26, 0xbf, 0x46, 0x33, 0xf6, 0xbe, 
  0xe8, 0x81, 0x50, 0xbf, 0x4f, 0x87, 0x8c, 0x3e, 0xbe, 0x2a, 0x28, 0xbf, 
  0xb6, 0x85, 0x80, 0xbe, 0x3e, 0xb7, 0x27, 0xbf, 0x81, 0x40, 0xa4, 0x3c, 
  0x37, 0x0b, 0xa0, 0xbd, 0x62, 0x60, 0xa0, 0xbe, 0xc2, 0x40, 0x0e, 0xbf, 
  0x85, 0x5d, 0x2e, 0xbe, 0x69, 0xb7, 0x0f, 0xbf, 0xf6, 0x31, 0x8d, 0x3d, 
  0x97, 0x7a, 0x30, 0xbf, 0x0f, 0x0a, 0xe7, 0x3e, 0x2f, 0xca, 0xe2, 0x3d, 
  0x84, 0xbc, 0x16, 0x3f, 0x7e, 0x44, 0x5f, 0xbe, 0xeb, 0x34, 0x32, 0x3f, 
  0x27, 0x53, 0x15, 0x3f, 0x67, 0x19, 0x3c, 0x3f, 0x86, 0x5e, 0xd2, 0x3e, 
  0x9a, 0x0e, 0x2f, 0xbf, 0x79, 0x02, 0x09, 0x3f, 0x4a, 0x84, 0x10, 0xbf, 
  0x8d, 0xe1, 0x19, 0xbf, 0x96, 0xfa, 0x2b, 0x3f, 0x4d, 0xa6, 0xc6, 0x3e, 
  0x63, 0xfc, 0x3a, 0xbf, 0x06, 0xb3, 0x1d, 0x3f, 0x8a, 0x6d, 0x8e, 0xbe, 
  0xf8, 0x62, 0x96, 0x3e, 0x58, 0x97, 0x68, 0xbf, 0x33, 0x85, 0x03, 0xbf, 
  0x25, 0xc5, 0x8e, 0x3e, 0x57, 0x7c, 0x0a, 0x3f, 0x5f, 0x82, 0xb2, 0x3e, 
  0x85, 0x01, 0xa6, 0x3c, 0xd6, 0x35, 0x60, 0xbf, 0xc4, 0xa5, 0x66, 0x3f, 
  0xd5, 0xf1, 0x74, 0xbf, 0x7a, 0x49, 0x54, 0xbf, 0xaa, 0x16, 0xfe, 0x3e, 
  0x08, 0xb9, 0x4d, 0x3f, 0x3c, 0x28, 0x37, 0xbf, 0x1e, 0x50, 0x25, 0xbf, 
  0x92, 0x88, 0xd3, 0x3e, 0xa4, 0xb9, 0xe2, 0x3e, 0xd1, 0xb4, 0x22, 0xbf, 
  0xe6, 0x94, 0x54, 0x3f, 0x2a, 0x2f, 0x91, 0xbe, 0x30, 0x22, 0x88, 0xbe, 
  0xf1, 0xf3, 0x99, 0xbe, 0xdb, 0x91, 0xa3, 0xbe, 0xc9, 0x3b, 0x52, 0xbd, 
  0x90, 0x0b, 0x10, 0x3f, 0xd6, 0x23, 0xfb, 0xbd, 0x8a, 0xe5, 0x18, 0x3f, 
  0xdf, 0xb3, 0x40, 0xbe, 0xcc, 0x54, 0x52, 0x3f, 0x79, 0x0a, 0x04, 0x3f, 
  0x72, 0x54, 0x4f, 0xbe, 0x00, 0xb1, 0x4d, 0xbe, 0xd0, 0xf6, 0xcf, 0xbd, 
  0xdc, 0xa7, 0xc6, 0x3e, 0x64, 0x37, 0x53, 0x3e, 0x2e, 0xc0, 0xe4, 0xbe, 
  0x1a, 0x74, 0xfe, 0xbe, 0xa9, 0x8f, 0x28, 0x3f, 0xb9, 0x60, 0x4c, 0x3f, 
  0x25, 0x5a, 0x0b, 0x3e, 0xef, 0xa3, 0x10, 0xbe, 0x1d, 0xb1, 0x0d, 0x3e, 
  0x29, 0xfc, 0x28, 0x3e, 0x4f, 0x02, 0x85, 0xbd, 0x9d, 0x9e, 0xd4, 0x3e, 
  0x2f, 0x18, 0x6e, 0xbd, 0x69, 0x26, 0xb6, 0x3e, 0xa5, 0xea, 0x69, 0xbf, 
  0xc4, 0x6c, 0x4f, 0xbf, 0x51, 0x9d, 0x4c, 0x3f, 0x91, 0x58, 0xfd, 0x3e, 
  0x03, 0x3e, 0x43, 0x3f, 0x4a, 0x78, 0x54, 0xbe, 0xae, 0x3a, 0x19, 0xbf, 
  0xab, 0x75, 0xef, 0x3e, 0xc0, 0x05, 0x53, 0x3f, 0xfd, 0xb7, 0x5a, 0xbf, 
  0x34, 0x38, 0x4b, 0x3f, 0xc2, 0x0b, 0xa9, 0x3e, 0x80, 0xe7, 0xec, 0x3e, 
  0x63, 0xd4, 0x16, 0xbf, 0x71, 0xf2, 0xdb, 0x3e, 0x85, 0x4b, 0x62, 0x3f, 
  0xf1, 0xea, 0x5f, 0x3f, 0x92, 0x61, 0xa3, 0xbd, 0xd5, 0x88, 0x2e, 0x3f, 
  0xbe, 0xf3, 0x1b, 0x3d, 0xc0, 0x46, 0xf2, 0x3e, 0xe2, 0x97, 0x1a, 0x3f, 
  0x67, 0x8e, 0x75, 0xbf, 0xb3, 0xda, 0x17, 0xbf, 0xdf, 0xbe, 0x6d, 0x3e, 
  0x5e, 0x92, 0xe7, 0x3e, 0xd3, 0xde, 0xbd, 0x3e, 0x2d, 0x88, 0xc8, 0x3e, 
  0x55, 0x54, 0x13, 0xbf, 0x51, 0xbd, 0xee, 0xbe, 0xdf, 0x2a, 0xa6, 0x3e, 
  0xb6, 0xe5, 0x4a, 0xbe, 0x8e, 0xef, 0xff, 0xff, 0x04, 0x00, 0x00, 0x00, 
  0x00, 0x0f, 0x00, 0x00, 0x27, 0xa5, 0x82, 0x3c, 0x35, 0xf9, 0xf7, 0xbd, 
  0x58, 0xe0, 0xae, 0x3d, 0x07, 0x32, 0xd0, 0x3c, 0x99, 0x46, 0x15, 0x3e, 
  0xc4, 0x7b, 0xc5, 0x3d, 0x83, 0x14, 0xcb, 0xbd, 0x0a, 0xf4, 0xe4, 0xbd, 
  0x92, 0x34, 0x9a, 0xbd, 0xde, 0xf5, 0x3e, 0x3d, 0x43, 0x51, 0x04, 0xbd, 
  0x67, 0x52, 0xd1, 0xbc, 0x0b, 0x19, 0x05, 0x3c, 0x3a, 0x49, 0x07, 0x3d, 
  0x0e, 0x2e, 0x68, 0x3d, 0xd9, 0x7f, 0x1f, 0x3d, 0x56, 0x78, 0x84, 0x3e, 
  0x68, 0x81, 0x3f, 0xbe, 0x97, 0xc2, 0xa0, 0x3d, 0x53, 0xf0, 0xf1, 0x3c, 
  0xcb, 0xd6, 0x18, 0x3e, 0x2a, 0x8f, 0x20, 0x3d, 0x1c, 0x95, 0xde, 0x3d, 
  0xb7, 0x0d, 0xd3, 0x3d, 0x0e, 0xdf, 0x27, 0xbd, 0x75, 0x7b, 0x5a, 0xbd, 
  0x27, 0x75, 0x5e, 0x3e, 0x5a, 0x04, 0x92, 0xbc, 0x1d, 0x79, 0x61, 0xbe, 
  0x35, 0xc2, 0x0b, 0xbe, 0x55, 0x10, 0x7a, 0xbe, 0xff, 0xfc, 0x9e, 0xbd, 
  0x0e, 0xcc, 0xa1, 0xbc, 0xd3, 0x15, 0xa6, 0x3c, 0xac, 0x91, 0x6c, 0xbd, 
  0xa8, 0x0b, 0x85, 0x3c, 0x1f, 0x26, 0x0d, 0xbd, 0xe4, 0x45, 0xee, 0xbd, 
  0x80, 0x8e, 0x54, 0xbd, 0x1b, 0x8f, 0x66, 0x3d, 0x56, 0xe5, 0xae, 0x3d, 
  0x1a, 0xbb, 0xb8, 0xbd, 0x23, 0xce, 0x82, 0x3d, 0x42, 0x6e, 0x9e, 0xbd, 
  0x09, 0xb1, 0xae, 0x3d, 0xcb, 0x41, 0x17, 0x3d, 0xc4, 0xb1, 0x02, 0x3e, 
  0xd1, 0x63, 0xbd, 0x3d, 0x5f, 0x75, 0xe5, 0x3d, 0x41, 0x75, 0xa5, 0xbd, 
  0x62, 0x36, 0xb5, 0x3d, 0xe5, 0x32, 0x64, 0x3d, 0x27, 0xff, 0xc1, 0x3d, 
  0x3d, 0xb8, 0x61, 0xbe, 0x04, 0x17, 0x69, 0xbd, 0x0f, 0x73, 0x0f, 0x3e, 
  0xcb, 0x85, 0x7d, 0x3e, 0xa0, 0x8d, 0x95, 0x3d, 0xe4, 0x98, 0x13, 0x3e, 
  0x30, 0x4b, 0x23, 0xbd, 0x5e, 0xaa, 0x3a, 0x3d, 0x5f, 0x6f, 0x1c, 0xbd, 
  0xf1, 0x97, 0x95, 0x3d, 0x7e, 0x58, 0x98, 0x3d, 0x0d, 0x8e, 0x60, 0x3d, 
  0x1f, 0x00, 0xc8, 0x3d, 0xe0, 0xd9, 0x43, 0xbe, 0xd5, 0xa9, 0x0e, 0x3d, 
  0x17, 0x5a, 0x87, 0x3e, 0x87, 0xf3, 0xc9, 0x3d, 0xe6, 0xdd, 0xb7, 0xbd, 
  0xc8, 0x9e, 0xb6, 0xba, 0xb9, 0x3f, 0x1e, 0xbc, 0xb5, 0x8a, 0xac, 0x3d, 
  0xae, 0x12, 0x30, 0x3e, 0x9a, 0xf8, 0xdd, 0xbd, 0x7c, 0xbe, 0x0a, 0xbe, 
  0x3b, 0x36, 0x78, 0x3d, 0xfa, 0xf3, 0xb4, 0x3d, 0x12, 0xcb, 0x78, 0x3c, 
  0x6e, 0xac, 0x12, 0x3e, 0x1e, 0x52, 0x1c, 0x3e, 0xd2, 0x58, 0x0f, 0xbd, 
  0xf4, 0xd4, 0x06, 0x3b, 0x3a, 0xaf, 0xf6, 0x3b, 0xa1, 0x58, 0x8c, 0xbd, 
  0xd7, 0xda, 0x6c, 0x3e, 0x48, 0x41, 0xaf, 0xbd, 0x88, 0x08, 0x02, 0xbe, 
  0x8b, 0xaa, 0x15, 0x3e, 0x0a, 0xb3, 0xe3, 0x3d, 0x34, 0x4c, 0x5e, 0xbe, 
  0x75, 0xed, 0x76, 0xbc, 0x79, 0x35, 0xc7, 0x3c, 0xbe, 0xa1, 0x93, 0xbd, 
  0x7b, 0xc2, 0x73, 0xbe, 0xee, 0x15, 0xa7, 0xbc, 0x2e, 0x7a, 0x33, 0x3e, 
  0x0d, 0x43, 0x28, 0x3d, 0x2e, 0x3d, 0x09, 0x3d, 0x75, 0x32, 0x0d, 0x3d, 
  0x19, 0x9a, 0x06, 0xbd, 0x0e, 0x35, 0x60, 0x3d, 0x0b, 0xcd, 0x86, 0xbc, 
  0x5e, 0xf6, 0x9b, 0xbb, 0xf0, 0xf4, 0x9d, 0xba, 0xf9, 0x7a, 0x5a, 0x3d, 
  0xce, 0xc3, 0x8e, 0xbe, 0xae, 0xf2, 0xb3, 0xbb, 0x4e, 0x1e, 0x86, 0x3d, 
  0x4b, 0x1c, 0x85, 0xbc, 0xfc, 0xdf, 0x9a, 0x3c, 0x66, 0x53, 0x12, 0x3d, 
  0x35, 0xdc, 0x0a, 0xbe, 0xe2, 0xf1, 0xab, 0xbd, 0xdb, 0x05, 0x01, 0x3e, 
  0x90, 0xe7, 0x89, 0x3d, 0x7f, 0xc9, 0x0c, 0x3e, 0x5c, 0xd0, 0xcd, 0x3c, 
  0xe3, 0x15, 0x03, 0xbe, 0x27, 0x67, 0x9b, 0xbd, 0xc5, 0x29, 0xac, 0xbd, 
  0x88, 0x27, 0x45, 0x3e, 0x0f, 0xd0, 0x8b, 0x3d, 0xd7, 0x70, 0x0d, 0x3e, 
  0x76, 0xc6, 0x81, 0xbd, 0xaa, 0x24, 0xa3, 0x3d, 0xb5, 0x38, 0xb8, 0x3d, 
  0x7f, 0x03, 0x28, 0x3e, 0xf3, 0x6a, 0xf0, 0xbd, 0x25, 0x46, 0xdc, 0x3d, 
  0x91, 0x78, 0x95, 0x3d, 0x92, 0x7d, 0x0c, 0xbd, 0x48, 0x9b, 0xbc, 0x3d, 
  0x2b, 0x15, 0x40, 0x3d, 0x53, 0xda, 0xdb, 0xbd, 0xbe, 0xae, 0x0c, 0x3e, 
  0xba, 0x61, 0x26, 0x3c, 0xcf, 0x62, 0xd5, 0xbd, 0x01, 0x45, 0x30, 0xbd, 
  0xd5, 0x5a, 0xd3, 0x3d, 0x2d, 0xdc, 0x1f, 0x3e, 0x2b, 0x47, 0x7f, 0xbe, 
  0xc7, 0x85, 0xa7, 0x3c, 0x62, 0xda, 0xde, 0x3d, 0x32, 0x3b, 0x87, 0xbd, 
  0x87, 0x80, 0x85, 0x3e, 0x21, 0xde, 0x2c, 0xbd, 0x5d, 0x1b, 0x2a, 0xbe, 
  0x28, 0xec, 0xa5, 0xbc, 0xb7, 0x22, 0x7a, 0x3d, 0x7e, 0x01, 0xdc, 0x3d, 
  0x22, 0x85, 0xff, 0xbd, 0x0d, 0xb0, 0x0b, 0x3d, 0xd5, 0x95, 0x09, 0x3e, 
  0xf6, 0xdb, 0xc1, 0x3d, 0xbf, 0x07, 0xa4, 0xbd, 0xcf, 0x77, 0x81, 0xbd, 
  0x5b, 0xa8, 0x34, 0xbe, 0x52, 0xda, 0x62, 0x3c, 0xd2, 0x3c, 0x85, 0x3d, 
  0x0a, 0x24, 0x0c, 0x3e, 0x56, 0x69, 0x12, 0xbe, 0x1c, 0x80, 0xae, 0x3c, 
  0x34, 0x9e, 0xe5, 0x3d, 0x3e, 0x8f, 0x62, 0x3d, 0xd4, 0x52, 0x99, 0xbd, 
  0x2e, 0xad, 0x88, 0xbc, 0x38, 0x11, 0x0b, 0x3e, 0x2c, 0x40, 0x0d, 0xbe, 
  0xfc, 0x46, 0xcc, 0xbd, 0x56, 0xf4, 0x31, 0x3d, 0xca, 0x57, 0xc9, 0x3a, 
  0x16, 0x0c, 0x05, 0x3e, 0x4a, 0x34, 0xc2, 0x3d, 0xc3, 0xe3, 0xd0, 0x3c, 
  0x5f, 0x6c, 0x35, 0x3d, 0x56, 0x3d, 0x37, 0x3d, 0x18, 0xc9, 0xbc, 0x3d, 
  0x11, 0x39, 0x50, 0x3d, 0x20, 0x80, 0xc6, 0xbd, 0xdb, 0x05, 0x93, 0xbd, 
  0x5d, 0x1b, 0x05, 0xbe, 0x74, 0x7a, 0xa6, 0xbd, 0x4a, 0x96, 0x72, 0x3e, 
  0xe9, 0x9a, 0xab, 0x3b, 0xc4, 0x0a, 0xaa, 0x3d, 0x6c, 0x88, 0xe6, 0x3d, 
  0x2c, 0x4f, 0x55, 0xbe, 0xac, 0x29, 0x6f, 0x3d, 0x85, 0x35, 0x72, 0xbc, 
  0x8c, 0x8a, 0xe7, 0x3d, 0x53, 0x43, 0xa0, 0x3d, 0x55, 0x59, 0x78, 0xbd, 
  0x59, 0x49, 0x6d, 0x3d, 0x2a, 0x67, 0x9d, 0x3d, 0xad, 0x6b, 0x32, 0x3e, 
  0xcc, 0x0a, 0x14, 0x3e, 0x65, 0xb7, 0xa1, 0x3d, 0xbe, 0xc9, 0x94, 0x3d, 
  0x71, 0xa9, 0xa9, 0x3d, 0xa2, 0x79, 0xb9, 0x3d, 0x88, 0x36, 0xc7, 0x3a, 
  0xa1, 0xc8, 0x0e, 0x3d, 0xa7, 0xae, 0x3f, 0xbd, 0x30, 0xa3, 0x4a, 0xbe, 
  0x99, 0xc0, 0x8c, 0xbd, 0x20, 0xdb, 0xc0, 0x3c, 0x3b, 0xec, 0x7a, 0x3c, 
  0x57, 0x18, 0x2c, 0x3e, 0xe9, 0xf2, 0x49, 0xbc, 0xb2, 0xe2, 0xfb, 0xbb, 
  0xfe, 0x9c, 0x98, 0xbd, 0x67, 0x2d, 0x2a, 0x3c, 0x66, 0x4a, 0x09, 0xbe, 
  0x20, 0xad, 0x7c, 0x39, 0x31, 0x95, 0x47, 0x3e, 0x2f, 0xc1, 0x5e, 0x3c, 
  0x31, 0x23, 0xf4, 0x3a, 0x11, 0x84, 0xa2, 0x3d, 0xff, 0x22, 0x8e, 0xbd, 
  0xe6, 0xa8, 0x12, 0xbd, 0x57, 0x86, 0xd2, 0x3d, 0x91, 0x33, 0xe9, 0xbc, 
  0x9d, 0xa4, 0xf6, 0xbd, 0x4e, 0x4e, 0x02, 0xbe, 0xfb, 0xbf, 0x1b, 0xbd, 
  0x0e, 0xa1, 0x84, 0x3c, 0x65, 0x3b, 0x1f, 0xbc, 0xb6, 0x2a, 0xbb, 0xbc, 
  0x66, 0x9c, 0xdc, 0xbd, 0xbc, 0xbd, 0xf8, 0x3d, 0xfe, 0xf9, 0x99, 0x3c, 
  0x26, 0x47, 0xf8, 0xbd, 0x6e, 0x5d, 0x89, 0xbd, 0x5f, 0x0e, 0x58, 0xbd, 
  0x0d, 0x6a, 0x0a, 0xbe, 0x65, 0xf8, 0x15, 0xbe, 0xd6, 0xc9, 0xe4, 0xbc, 
  0x0f, 0x36, 0xd0, 0x3d, 0xe8, 0x9a, 0x69, 0xbd, 0xd1, 0x81, 0xc7, 0xbd, 
  0xbe, 0x42, 0xb0, 0x3d, 0xee, 0x09, 0x0c, 0xbe, 0x15, 0x5e, 0x6b, 0xba, 
  0x0c, 0xd1, 0xc1, 0x3d, 0x41, 0xb9, 0x29, 0x3d, 0xf6, 0x44, 0x2f, 0x3e, 
  0x3b, 0x2f, 0x11, 0xbe, 0xe1, 0xd3, 0x15, 0xbd, 0xb4, 0x82, 0xaf, 0xbd, 
  0x8b, 0x9b, 0x21, 0x3e, 0x2b, 0x41, 0x2c, 0x3d, 0xb5, 0xfa, 0x00, 0xbe, 
  0x0c, 0x5c, 0x83, 0x3d, 0xe0, 0x8f, 0xfd, 0x3d, 0xfb, 0x46, 0x26, 0x3e, 
  0x69, 0x42, 0x85, 0xbd, 0x7e, 0x49, 0xbf, 0x3d, 0x78, 0x09, 0x9b, 0xbd, 
  0x5a, 0xfb, 0xd5, 0x3d, 0x3f, 0x1d, 0x22, 0xbe, 0x50, 0x3c, 0xd8, 0x3d, 
  0x08, 0x75, 0xfd, 0xbb, 0x02, 0x0e, 0x34, 0xbe, 0x5f, 0x23, 0xab, 0x3d, 
  0xc8, 0xd7, 0x6d, 0x3d, 0x21, 0xe5, 0x5b, 0x3d, 0x7d, 0x3c, 0xed, 0xbd, 
  0x86, 0xeb, 0xf5, 0x3d, 0x94, 0x5e, 0xa2, 0x3d, 0x94, 0xde, 0xd7, 0xbd, 
  0xb7, 0x23, 0x06, 0x3e, 0xc9, 0x8d, 0xf1, 0x3d, 0x16, 0x5c, 0x94, 0x3d, 
  0xfb, 0xf4, 0xec, 0xbd, 0x00, 0xeb, 0x0b, 0xbe, 0x32, 0x4e, 0xa1, 0xbd, 
  0x83, 0xcb, 0xa8, 0x3c, 0x93, 0xa7, 0xc2, 0xbb, 0xfa, 0xb2, 0xd7, 0x3d, 
  0x1c, 0xf3, 0x11, 0xbe, 0xab, 0xc0, 0x85, 0xba, 0xa6, 0x4c, 0x30, 0x3d, 
  0xb3, 0xf7, 0x03, 0x3e, 0xd4, 0x4a, 0xa5, 0xbc, 0xd9, 0x81, 0xc3, 0x3d, 
  0x29, 0xa2, 0x26, 0xbd, 0x8e, 0xbc, 0xd3, 0x3c, 0xc7, 0x86, 0x09, 0x3d, 
  0x44, 0xfc, 0xe7, 0x3d, 0x3f, 0xa4, 0x8d, 0x3d, 0x17, 0xc1, 0xcd, 0xbd, 
  0x61, 0xa6, 0xb8, 0x3d, 0x7e, 0x7c, 0xed, 0xbc, 0x2e, 0x69, 0x36, 0x3d, 
  0x46, 0x7a, 0x5c, 0x3e, 0x1f, 0xfe, 0x72, 0xbd, 0x00, 0xe9, 0xf1, 0xbd, 
  0x0d, 0xbf, 0x43, 0xbe, 0x5c, 0x17, 0x51, 0xbe, 0x8e, 0xf8, 0x88, 0xbd, 
  0x43, 0xbc, 0x1c, 0x3e, 0x64, 0xf7, 0x53, 0x3d, 0x9f, 0xe0, 0x41, 0xbd, 
  0xaf, 0x2c, 0x07, 0x3e, 0xf6, 0x04, 0x8d, 0x3c, 0x17, 0x46, 0x28, 0xbd, 
  0x32, 0xbf, 0x41, 0x3d, 0x6a, 0x13, 0x11, 0xbe, 0x9d, 0x1f, 0xef, 0x3d, 
  0xa5, 0x2b, 0xb9, 0x3d, 0x20, 0xb4, 0xe4, 0xbd, 0xb2, 0xe1, 0x6c, 0x3d, 
  0x82, 0x1e, 0xa5, 0x3d, 0xf1, 0x9f, 0x49, 0xbd, 0xf6, 0x56, 0x9f, 0x3d, 
  0xa2, 0xfe, 0x30, 0x3d, 0x66, 0x75, 0xa6, 0x3d, 0x91, 0x09, 0xa1, 0x3d, 
  0xd0, 0x2f, 0x79, 0x3d, 0x8b, 0x15, 0x4d, 0xbd, 0xc8, 0x6c, 0x42, 0x3c, 
  0x4b, 0xce, 0x5d, 0x3c, 0x55, 0xe4, 0x26, 0x3d, 0x18, 0xb0, 0xd3, 0xbc, 
  0xaf, 0x77, 0x30, 0x3e, 0x91, 0x96, 0x08, 0xbd, 0x9e, 0xd9, 0xb0, 0xbd, 
  0x69, 0x6e, 0xa2, 0x3c, 0x28, 0x6b, 0x8b, 0x3d, 0x60, 0x90, 0x02, 0xbc, 
  0xa6, 0x67, 0x0f, 0x3e, 0x6e, 0x5a, 0xa0, 0x3d, 0x1f, 0xa5, 0x3a, 0x3e, 
  0x19, 0x48, 0x8a, 0xbe, 0x0a, 0xaf, 0x6b, 0xbd, 0x05, 0xd3, 0xba, 0xbc, 
  0x08, 0x7f, 0x0d, 0xbd, 0xa3, 0x82, 0xb9, 0x3d, 0xa9, 0xf3, 0x01, 0xbd, 
  0x72, 0x69, 0x7b, 0xbe, 0x9d, 0x59, 0xcd, 0x3d, 0xa1, 0x0c, 0x8c, 0x3c, 
  0x98, 0xb8, 0x6d, 0xbd, 0x72, 0xc4, 0xc6, 0xbd, 0x4a, 0x38, 0x8f, 0x3d, 
  0x48, 0x5f, 0x93, 0x3c, 0x6a, 0x81, 0x0f, 0x3d, 0xaa, 0xea, 0x20, 0x3e, 
  0xfe, 0x60, 0xec, 0x3d, 0x42, 0x8a, 0x83, 0x3d, 0xd0, 0x4c, 0x07, 0x3c, 
  0x3a, 0xf9, 0x39, 0xbe, 0x80, 0xb7, 0x78, 0xbd, 0x8f, 0xb2, 0xbf, 0x3d, 
  0x84, 0xcf, 0x86, 0xbd, 0x34, 0x2b, 0x04, 0x3e, 0x23, 0xd0, 0x5b, 0xbe, 
  0x95, 0x4b, 0x81, 0xbd, 0xa0, 0xa9, 0x3e, 0x3e, 0x18, 0xbf, 0x36, 0x3e, 
  0x35, 0x87, 0xc7, 0xba, 0xa1, 0x4b, 0x24, 0x3e, 0xae, 0x09, 0x56, 0xbe, 
  0x1b, 0x99, 0xdb, 0xbd, 0x0b, 0x12, 0x46, 0xbd, 0x2c, 0xc6, 0x9f, 0xbd, 
  0x22, 0x8b, 0xee, 0xbd, 0x73, 0x17, 0x05, 0xbe, 0x8a, 0x74, 0x88, 0x3d, 
  0xc0, 0x99, 0x13, 0x3e, 0x49, 0x1e, 0xc6, 0x3d, 0xca, 0xec, 0x36, 0xbd, 
  0x56, 0xa5, 0x65, 0xbe, 0xbb, 0xe6, 0xd9, 0xbc, 0x57, 0x4f, 0xc7, 0xbd, 
  0xf0, 0x73, 0x20, 0x3d, 0x29, 0x3f, 0x9b, 0xba, 0xf8, 0xe4, 0xa8, 0xbd, 
  0xd3, 0x9a, 0x31, 0xbc, 0x4e, 0x9f, 0x91, 0xbd, 0x68, 0xe8, 0xb2, 0xbd, 
  0x35, 0x21, 0xbf, 0xbd, 0x60, 0x9e, 0x0a, 0x3c, 0xa0, 0xe3, 0x64, 0xbd, 
  0x7d, 0xb7, 0x28, 0xbe, 0x34, 0x8f, 0x19, 0x3e, 0x89, 0x11, 0x35, 0x3d, 
  0xce, 0x60, 0xca, 0x3d, 0xd7, 0x6f, 0xee, 0x3c, 0x49, 0x98, 0x34, 0xbd, 
  0xc2, 0x69, 0xeb, 0x3d, 0x6a, 0x4f, 0xf0, 0xbb, 0xb7, 0x4f, 0x28, 0x3e, 
  0x46, 0xe5, 0x2f, 0xbe, 0x7c, 0xc8, 0xf2, 0xbd, 0x61, 0xcd, 0xf8, 0xbd, 
  0x13, 0x33, 0xf3, 0x3d, 0xa9, 0x82, 0xce, 0x3d, 0x8f, 0x3a, 0x37, 0x3d, 
  0x45, 0x7e, 0x07, 0xbe, 0xf4, 0xf1, 0xee, 0x3d, 0xaa, 0xf4, 0x4d, 0xbd, 
  0x9f, 0x7c, 0x97, 0x3c, 0x3c, 0xcd, 0xc0, 0x3d, 0x00, 0x09, 0xf2, 0xbd, 
  0x96, 0x0b, 0x36, 0x3d, 0xb5, 0x19, 0xf6, 0xbd, 0x59, 0xf7, 0x96, 0x3d, 
  0xd7, 0x09, 0xfd, 0xbb, 0xe6, 0xe8, 0x39, 0xbe, 0x86, 0xa5, 0x6c, 0x3d, 
  0xd0, 0xed, 0x07, 0xbe, 0x55, 0x86, 0xf1, 0x3d, 0xc1, 0x03, 0x51, 0x3e, 
  0xf0, 0x40, 0x5c, 0x3e, 0x16, 0xcc, 0x27, 0x3d, 0xa6, 0x84, 0x18, 0xbe, 
  0x56, 0x0b, 0x91, 0x3c, 0x32, 0x42, 0x20, 0x3d, 0x03, 0xd1, 0x60, 0xbd, 
  0x42, 0xf9, 0x9d, 0xbd, 0x4e, 0x21, 0xc9, 0x3d, 0x6f, 0x3a, 0x07, 0xbd, 
  0xf9, 0x3e, 0x57, 0x3e, 0x66, 0x20, 0x84, 0xbd, 0xaf, 0x84, 0x11, 0xbe, 
  0xcc, 0x80, 0xde, 0xbb, 0xef, 0x59, 0xfc, 0xbd, 0xee, 0x86, 0xcd, 0xbd, 
  0x50, 0x04, 0x03, 0x3e, 0xec, 0x68, 0xaa, 0x3d, 0x44, 0x25, 0x1a, 0xbe, 
  0x40, 0xd7, 0xd0, 0x3d, 0x1e, 0xd9, 0xaf, 0xbd, 0x1a, 0xa1, 0x17, 0x3e, 
  0x02, 0xd4, 0xf7, 0x3d, 0x1e, 0x13, 0x8f, 0xbd, 0x61, 0xd3, 0x14, 0x3d, 
  0xca, 0xa5, 0x4e, 0xbd, 0xef, 0xdb, 0xce, 0x3d, 0x71, 0x41, 0x49, 0xbc, 
  0xc2, 0x3e, 0x62, 0xbc, 0xc6, 0x83, 0xd8, 0x3c, 0x4b, 0x14, 0x87, 0xbe, 
  0xcb, 0x9e, 0x3d, 0x3d, 0x83, 0xfb, 0x22, 0xbd, 0x5a, 0x3f, 0xc7, 0xbc, 
  0x43, 0x4a, 0x11, 0xbe, 0x63, 0x32, 0x3e, 0x3b, 0x60, 0x20, 0x13, 0x3d, 
  0x0e, 0x7e, 0x7d, 0x3e, 0xba, 0x0c, 0xaf, 0xbd, 0x95, 0x1e, 0xb7, 0x3d, 
  0x57, 0xe1, 0xe0, 0xbc, 0x34, 0xfb, 0xa0, 0xbd, 0x0e, 0x73, 0xbd, 0x3c, 
  0x8b, 0xaa, 0xac, 0xbd, 0x95, 0x04, 0x1d, 0x3e, 0x0a, 0x86, 0x42, 0x3e, 
  0x55, 0xca, 0x4b, 0x3e, 0x12, 0x6f, 0xa1, 0x3a, 0x5f, 0x77, 0x17, 0xbe, 
  0x5f, 0xe2, 0x72, 0x3e, 0x9f, 0x04, 0xf4, 0xbd, 0x3c, 0x4a, 0x8f, 0xbb, 
  0x17, 0x44, 0x0a, 0xbe, 0xe0, 0x8a, 0xd3, 0x3d, 0x1c, 0x62, 0x01, 0xbd, 
  0x3b, 0xc7, 0x36, 0xbd, 0xd2, 0xaa, 0x91, 0x3d, 0x06, 0x08, 0x6f, 0xbd, 
  0x1a, 0x26, 0x3a, 0x3d, 0xb7, 0xf9, 0x35, 0xbd, 0x95, 0x6d, 0xf5, 0x3d, 
  0x1e, 0xff, 0x1b, 0x3e, 0xcf, 0xc2, 0xcc, 0xbc, 0x70, 0xa7, 0x64, 0xbe, 
  0x04, 0xdd, 0x6c, 0xbd, 0x4f, 0x8e, 0xef, 0xbd, 0xbf, 0x21, 0xce, 0x3c, 
  0x17, 0x55, 0x85, 0xbd, 0xcf, 0xe2, 0x14, 0xbe, 0x13, 0xe2, 0x2e, 0xbd, 
  0xd4, 0xb9, 0x67, 0x3d, 0x61, 0x40, 0x94, 0x3d, 0xbc, 0xe5, 0x35, 0xbd, 
  0x1b, 0x56, 0xe2, 0xbd, 0x84, 0xee, 0xf4, 0xbc, 0x0e, 0x90, 0x59, 0x3e, 
  0xf4, 0x0b, 0x29, 0xbe, 0x7b, 0x12, 0x00, 0x3c, 0xb1, 0xfb, 0x7d, 0x3d, 
  0x45, 0x48, 0xe1, 0x3d, 0x31, 0x5b, 0x24, 0x3d, 0x4b, 0x4f, 0xdb, 0xbb, 
  0x34, 0x6e, 0xef, 0x3d, 0x64, 0x7d, 0xed, 0x3d, 0xb3, 0x27, 0xa9, 0x3d, 
  0x5e, 0x0d, 0xaa, 0xbd, 0xbc, 0x90, 0xdd, 0x3d, 0x4a, 0x5e, 0xaa, 0xbd, 
  0x28, 0x15, 0x73, 0x3d, 0x89, 0xd6, 0x31, 0xbe, 0x8c, 0xb4, 0x5c, 0xbe, 
  0xc6, 0xb0, 0x4a, 0x3e, 0xf8, 0xdc, 0x08, 0xbe, 0x07, 0xd2, 0x41, 0xbd, 
  0x69, 0x21, 0xf1, 0x3d, 0x11, 0xf9, 0x1b, 0x3e, 0x2e, 0xef, 0x70, 0x3d, 
  0xd7, 0x1a, 0xf7, 0x3c, 0x7d, 0xd6, 0x82, 0xbd, 0x2a, 0xa0, 0x0c, 0xbe, 
  0xb1, 0x14, 0x3a, 0xbc, 0x4d, 0xe3, 0x12, 0x3e, 0xe8, 0x7a, 0x91, 0x3c, 
  0x53, 0x12, 0xcc, 0xbd, 0x2a, 0x3b, 0xfd, 0x3a, 0x9e, 0x16, 0xa6, 0xbb, 
  0x76, 0xfb, 0x80, 0xbe, 0xa2, 0x35, 0xfd, 0x3d, 0x49, 0x2c, 0xa2, 0x3d, 
  0x73, 0xbe, 0xe9, 0xbc, 0x45, 0x74, 0xf4, 0x3b, 0x14, 0x37, 0xd5, 0xbd, 
  0x50, 0x19, 0xec, 0xbd, 0xfe, 0xb8, 0xaf, 0x3d, 0xb6, 0x71, 0x6e, 0x3d, 
  0x4a, 0xb6, 0xe5, 0x3c, 0xbd, 0x3c, 0x0e, 0xbe, 0x67, 0xf1, 0x3a, 0x3d, 
  0xfb, 0xfd, 0x81, 0xbd, 0xaa, 0x00, 0xeb, 0x3d, 0xe2, 0xd3, 0x8e, 0xbd, 
  0x40, 0xf7, 0x60, 0x3c, 0x63, 0x3e, 0x99, 0xbb, 0x1e, 0xe7, 0xcf, 0xbd, 
  0x62, 0x62, 0x0f, 0xbb, 0xc5, 0xda, 0xd8, 0x3d, 0x79, 0x65, 0xaa, 0x3d, 
  0x8a, 0xcd, 0xe3, 0x3b, 0x1d, 0x50, 0x03, 0xbe, 0xf4, 0x28, 0x07, 0x3e, 
  0x05, 0x42, 0x6e, 0x3e, 0xd0, 0xfa, 0x0a, 0xbd, 0x88, 0x65, 0x9c, 0xbd, 
  0x76, 0x3a, 0x8d, 0xbc, 0xa1, 0x59, 0x8e, 0xbd, 0xa3, 0x56, 0xde, 0xbd, 
  0xdc, 0x22, 0x39, 0x3e, 0x0b, 0x58, 0x63, 0xbc, 0x12, 0xde, 0x66, 0xbe, 
  0x68, 0x58, 0x01, 0x3e, 0x2d, 0x4b, 0x1b, 0x3d, 0x47, 0x5f, 0xb5, 0x3d, 
  0x67, 0x92, 0xba, 0x3d, 0x6d, 0x36, 0xcb, 0xbc, 0xe9, 0x4a, 0xb2, 0xbd, 
  0x72, 0xf5, 0x0b, 0x3d, 0xd3, 0x1a, 0x94, 0xbd, 0xab, 0x1e, 0x18, 0x3d, 
  0xfb, 0x8b, 0xb5, 0x3d, 0x26, 0x90, 0x8e, 0x3d, 0x46, 0xe7, 0xa5, 0xba, 
  0xd2, 0x08, 0xae, 0x3d, 0x4c, 0x49, 0xc2, 0xbd, 0xde, 0x82, 0xb5, 0xbd, 
  0xfb, 0xa0, 0x99, 0x3d, 0x1b, 0xa7, 0x2c, 0xbd, 0x4d, 0x59, 0xee, 0x3d, 
  0x16, 0xa6, 0xd0, 0x3d, 0xe3, 0xea, 0x3b, 0xbd, 0x29, 0xa9, 0xee, 0x3d, 
  0x3f, 0xa9, 0xae, 0x3c, 0x27, 0xd0, 0xa1, 0x3d, 0x4d, 0x33, 0x15, 0xbc, 
  0x52, 0xca, 0x65, 0x3d, 0x52, 0x32, 0x0e, 0xbd, 0x31, 0x49, 0x69, 0x3e, 
  0xeb, 0x0c, 0xc2, 0x3c, 0xd4, 0x89, 0xc3, 0xbd, 0x78, 0x67, 0x84, 0xbc, 
  0x0a, 0x7d, 0xb0, 0xbd, 0x6d, 0x85, 0x94, 0x3d, 0xf9, 0xff, 0xdc, 0x3d, 
  0x47, 0x2f, 0x13, 0x3e, 0xeb, 0x3e, 0x16, 0x3e, 0x44, 0x13, 0x93, 0x3c, 
  0x65, 0x01, 0x1f, 0x3e, 0x00, 0x86, 0xbb, 0x3d, 0x29, 0x03, 0xb6, 0xbd, 
  0xfc, 0xd9, 0xfd, 0xbd, 0x8c, 0x45, 0x07, 0xbd, 0x73, 0xe7, 0x7f, 0xbc, 
  0x32, 0xf5, 0x9a, 0x3d, 0x42, 0xcf, 0x1f, 0xbe, 0x2a, 0xe5, 0x62, 0xbe, 
  0x1c, 0x17, 0x7f, 0x3e, 0x5d, 0xc2, 0x84, 0x3d, 0xa5, 0x03, 0xe4, 0x3d, 
  0x4f, 0x0d, 0x23, 0x3e, 0x22, 0x96, 0xd9, 0x3d, 0x62, 0xe5, 0xdb, 0x3d, 
  0xf6, 0x31, 0x73, 0xbd, 0x5c, 0x03, 0xbf, 0x3d, 0x43, 0x93, 0x88, 0xb9, 
  0xfa, 0xa2, 0xa0, 0x3d, 0x37, 0x21, 0xbd, 0xbb, 0x95, 0xfa, 0x8a, 0x3d, 
  0xfd, 0xc3, 0x4f, 0x3c, 0xd9, 0x5b, 0xb9, 0x3d, 0x31, 0x5f, 0x9f, 0xbb, 
  0x66, 0xff, 0x0e, 0x3e, 0x05, 0xec, 0xcd, 0xbc, 0xbe, 0xdd, 0xb4, 0xbd, 
  0x64, 0x78, 0x9e, 0x3d, 0xac, 0x5a, 0x44, 0xbe, 0xa3, 0xd9, 0x31, 0x3c, 
  0x41, 0xfd, 0x87, 0xbc, 0x71, 0xca, 0x84, 0x3d, 0x79, 0xe2, 0xf4, 0x3d, 
  0xdf, 0x09, 0x1c, 0x3e, 0x78, 0xe5, 0x5f, 0xbd, 0x11, 0x64, 0xa0, 0xbd, 
  0xa6, 0xa9, 0x37, 0x3d, 0x99, 0xc6, 0x3e, 0xbc, 0x27, 0x12, 0x88, 0xbd, 
  0xc6, 0xb6, 0x1f, 0x3e, 0x56, 0x43, 0xf8, 0xbd, 0xef, 0x9e, 0x70, 0xbd, 
  0x07, 0x73, 0xa6, 0x3d, 0xf0, 0xcd, 0xcf, 0xbd, 0x20, 0x5a, 0x5a, 0x3e, 
  0xf4, 0xf3, 0xb4, 0x3a, 0x65, 0x5f, 0x03, 0x3e, 0x92, 0x51, 0x84, 0x3d, 
  0x8b, 0x85, 0x0d, 0x3d, 0xcd, 0xcf, 0xcd, 0xbd, 0x4c, 0xd6, 0x45, 0x3e, 
  0x18, 0x68, 0x14, 0xbd, 0xfe, 0x24, 0xb9, 0xbd, 0xe6, 0x6c, 0x08, 0xbb, 
  0xb4, 0xa0, 0x1e, 0x3e, 0x5c, 0x77, 0x39, 0x3e, 0x76, 0x97, 0x0a, 0xbd, 
  0x95, 0x83, 0x74, 0xbd, 0x0e, 0xd3, 0x6f, 0xbd, 0x39, 0x98, 0x67, 0xbd, 
  0x23, 0x65, 0x3e, 0xbd, 0x05, 0x19, 0x98, 0xbd, 0xd6, 0xd2, 0xf5, 0x3c, 
  0x2a, 0x43, 0xbe, 0x3c, 0x39, 0x24, 0xac, 0x3d, 0x48, 0x91, 0x1c, 0x3d, 
  0xe6, 0x6a, 0x50, 0x3e, 0x29, 0x07, 0x8b, 0xbd, 0xb1, 0x76, 0xa4, 0xbe, 
  0xc1, 0xcc, 0x05, 0xbb, 0x3b, 0x29, 0x08, 0xbe, 0x9d, 0x01, 0xa3, 0xbc, 
  0x7b, 0xb4, 0xa5, 0x3d, 0x6c, 0x7b, 0x83, 0x3d, 0xb7, 0x37, 0xd1, 0x3d, 
  0x6f, 0x98, 0x84, 0xbd, 0x61, 0xb2, 0x93, 0xbd, 0x69, 0xc2, 0x69, 0xbe, 
  0x19, 0xc8, 0x05, 0x3c, 0xda, 0xb8, 0x82, 0x3d, 0xde, 0x4b, 0x75, 0x3e, 
  0xe8, 0x26, 0x15, 0xbe, 0x4b, 0x0b, 0x0f, 0x3e, 0x42, 0x18, 0x0c, 0x3e, 
  0x54, 0xa0, 0x0e, 0x3e, 0x2a, 0x57, 0x7f, 0x3d, 0xac, 0x02, 0xe6, 0xbd, 
  0xa2, 0xdd, 0xb8, 0x3d, 0xc2, 0x49, 0x78, 0xbd, 0x07, 0xcd, 0xbf, 0xbd, 
  0x54, 0x76, 0xe9, 0x3d, 0x64, 0xdf, 0x24, 0xbe, 0x7f, 0x5d, 0x28, 0xbd, 
  0x40, 0xa8, 0xf0, 0xbb, 0x83, 0x1b, 0x69, 0x3d, 0xf5, 0x5b, 0xc4, 0x3d, 
  0xd1, 0xf5, 0x08, 0x3e, 0xb2, 0xfa, 0xc1, 0x3d, 0xe4, 0x63, 0x3e, 0xbc, 
  0x1d, 0xb8, 0x10, 0xbe, 0x94, 0x4a, 0x30, 0xbd, 0x1c, 0xc4, 0xf6, 0xbd, 
  0xf5, 0x79, 0x68, 0x3d, 0x5c, 0xf1, 0xcf, 0x3d, 0x98, 0xa6, 0xe9, 0x3d, 
  0x2f, 0xcc, 0xf7, 0xbd, 0x1e, 0x34, 0x15, 0xbe, 0x55, 0x95, 0xc9, 0xbd, 
  0x18, 0xe3, 0x23, 0x3c, 0x47, 0x42, 0x93, 0xbc, 0xb9, 0x2f, 0x4b, 0x3d, 
  0x38, 0x1e, 0x0e, 0xbe, 0x50, 0xee, 0x4d, 0xbd, 0x43, 0x75, 0xcc, 0x3d, 
  0xb5, 0x34, 0xa9, 0x3d, 0x1b, 0xb2, 0x0c, 0xbd, 0x35, 0xf5, 0x4b, 0xbd, 
  0x98, 0x68, 0x3c, 0x3d, 0xf1, 0x06, 0xa8, 0x3d, 0x12, 0x64, 0xb2, 0x3c, 
  0x21, 0xdc, 0x86, 0x3d, 0xe1, 0x1e, 0x90, 0x3c, 0x90, 0x48, 0x15, 0xbd, 
  0x04, 0x39, 0x2b, 0xbe, 0x04, 0x54, 0xcf, 0x3d, 0xf9, 0x48, 0x22, 0x3e, 
  0x18, 0x1d, 0xe2, 0x3d, 0x43, 0x32, 0xb3, 0xbb, 0xfc, 0xb9, 0xaa, 0x3c, 
  0xb5, 0xb4, 0x86, 0x3d, 0xde, 0x14, 0xff, 0xbd, 0x07, 0x94, 0x54, 0xbd, 
  0x36, 0x23, 0x08, 0x3d, 0xd2, 0xc1, 0x5a, 0xbe, 0xeb, 0x5b, 0xa6, 0x3c, 
  0x75, 0x77, 0x72, 0x3e, 0x4a, 0x63, 0x11, 0x3e, 0xd5, 0xa0, 0xe3, 0xbd, 
  0xf0, 0xc0, 0x62, 0xbd, 0xea, 0x93, 0x9e, 0x3d, 0x0b, 0xff, 0x18, 0x3d, 
  0x93, 0x23, 0x29, 0x3e, 0x02, 0xf1, 0x31, 0x3e, 0x15, 0x8d, 0xb4, 0xbd, 
  0x43, 0xfc, 0xaf, 0x3d, 0xf1, 0xd2, 0x21, 0xbd, 0xa0, 0xd7, 0xb3, 0x3d, 
  0xc2, 0xf4, 0x49, 0x3d, 0xfe, 0xb0, 0x2f, 0xbc, 0xed, 0xeb, 0x22, 0xbe, 
  0x7c, 0xc5, 0x35, 0xbd, 0x35, 0xf8, 0x78, 0x3b, 0x1b, 0x8a, 0x9d, 0xbd, 
  0xf7, 0xa9, 0xcc, 0x3a, 0x78, 0x40, 0xde, 0xbd, 0xd2, 0xdc, 0x4b, 0xbd, 
  0xe8, 0x4b, 0x07, 0x3e, 0x65, 0x90, 0x9c, 0xbd, 0x8d, 0x25, 0x53, 0x3b, 
  0x40, 0x79, 0x80, 0x3d, 0xfa, 0x98, 0x8f, 0xbd, 0x29, 0x59, 0x08, 0x3e, 
  0xb5, 0x8b, 0x8b, 0x3e, 0x78, 0x10, 0x15, 0x3e, 0xd6, 0x45, 0x54, 0xbd, 
  0xca, 0x66, 0x0c, 0xbc, 0x87, 0xef, 0x16, 0x3d, 0xf0, 0x0b, 0x2b, 0xbe, 
  0xae, 0xb9, 0xc6, 0xba, 0xd5, 0x81, 0x6e, 0xbc, 0x45, 0x16, 0xc4, 0xbd, 
  0x00, 0x2f, 0xb1, 0x3d, 0x88, 0x35, 0xee, 0x3d, 0xb6, 0xe0, 0xfb, 0x3d, 
  0x05, 0x5d, 0x33, 0x3e, 0x62, 0xf9, 0xd9, 0x3d, 0x58, 0x50, 0x80, 0xbd, 
  0x0c, 0xd6, 0x6f, 0x3d, 0xa2, 0xa6, 0x84, 0x3c, 0xd0, 0x75, 0x9c, 0xbc, 
  0x22, 0xa5, 0x1f, 0x3e, 0x54, 0xd4, 0x3b, 0x3d, 0xfa, 0xb1, 0x45, 0xbe, 
  0xc3, 0x11, 0x0a, 0x3e, 0x81, 0xe2, 0x05, 0x3d, 0xf2, 0x96, 0x8d, 0xbd, 
  0xb3, 0x2a, 0x26, 0x3e, 0xa7, 0xd2, 0xbe, 0x3d, 0x9b, 0xfe, 0x0d, 0xbe, 
  0xbf, 0x3f, 0x37, 0xbd, 0x8d, 0xa8, 0xfd, 0xbd, 0x1a, 0x36, 0xf7, 0x3a, 
  0x16, 0xc0, 0xff, 0x3c, 0x48, 0x50, 0xd0, 0xbd, 0x74, 0xcb, 0x9c, 0x3d, 
  0xde, 0x16, 0x0b, 0x3e, 0x8a, 0x98, 0xd5, 0xbc, 0xa8, 0x01, 0x1d, 0xbe, 
  0xbb, 0xc5, 0x36, 0xbd, 0xb7, 0x84, 0xf2, 0x3c, 0x42, 0xbb, 0xe9, 0x3d, 
  0xb6, 0x31, 0x4a, 0x3e, 0x46, 0x8e, 0x45, 0xbd, 0x4d, 0x1e, 0x98, 0xbd, 
  0xdd, 0x6f, 0x9f, 0x3d, 0xda, 0x37, 0xfc, 0xbd, 0x6d, 0xfa, 0x89, 0xbd, 
  0x36, 0x86, 0x5d, 0x3e, 0x88, 0x2f, 0x0f, 0x3e, 0x23, 0xeb, 0xa5, 0xbd, 
  0x04, 0x61, 0xc8, 0xba, 0x63, 0x63, 0x65, 0x3d, 0x0d, 0x23, 0xab, 0xbd, 
  0xda, 0xac, 0x65, 0x3b, 0xfe, 0x1e, 0x0a, 0x3e, 0xaa, 0x9c, 0x1a, 0xbe, 
  0x18, 0x99, 0xc6, 0x3d, 0x90, 0xd0, 0xe1, 0xbd, 0x04, 0x41, 0x45, 0xbd, 
  0xc5, 0x3f, 0x40, 0xbd, 0x49, 0xef, 0x36, 0xbe, 0xb2, 0x45, 0x37, 0xbe, 
  0x16, 0xb0, 0x4b, 0xbc, 0x4d, 0x83, 0x17, 0xbd, 0x00, 0xdf, 0x77, 0xbd, 
  0xa6, 0xe7, 0x74, 0x3e, 0x71, 0x45, 0xd5, 0x3d, 0x97, 0xbd, 0x4d, 0x3d, 
  0xd7, 0xd1, 0x8f, 0xbc, 0x11, 0x6c, 0xc0, 0xbd, 0x43, 0x6d, 0x3e, 0x3e, 
  0x40, 0x54, 0x15, 0x3e, 0x62, 0x39, 0x72, 0x3d, 0xc8, 0x4f, 0x14, 0xbb, 
  0x2e, 0xbf, 0x5c, 0x3c, 0xac, 0x33, 0xcd, 0x3c, 0x28, 0xd6, 0xab, 0xbd, 
  0x52, 0x46, 0x1f, 0x3e, 0x86, 0xa9, 0x02, 0x3e, 0x58, 0x37, 0x65, 0xbe, 
  0xbb, 0x15, 0xc0, 0x3d, 0x95, 0x16, 0x3d, 0xbd, 0x6e, 0xfe, 0xbf, 0x3c, 
  0x01, 0xda, 0xa8, 0xbd, 0xae, 0x1f, 0x9d, 0xbd, 0xe8, 0xd2, 0x49, 0xbd, 
  0x19, 0x45, 0x2d, 0x3d, 0x99, 0x1b, 0xb1, 0xbd, 0xc6, 0x69, 0xcc, 0xbd, 
  0x1c, 0x08, 0x6a, 0xbb, 0xda, 0x79, 0x44, 0x3b, 0xf8, 0xe7, 0x6d, 0xbc, 
  0xb4, 0x06, 0x5c, 0xbe, 0x43, 0x2b, 0xf7, 0xbd, 0xd5, 0xd5, 0xb0, 0xbd, 
  0x68, 0x6b, 0x2e, 0x3e, 0x73, 0xc9, 0x17, 0xbe, 0xca, 0x42, 0xd4, 0xbd, 
  0x8b, 0x93, 0x16, 0xbc, 0x23, 0xa2, 0xc7, 0x3d, 0xc5, 0x85, 0x2d, 0x3e, 
  0x73, 0xa3, 0x9c, 0x3d, 0x62, 0x91, 0xa6, 0xbd, 0xd2, 0xce, 0x00, 0xbe, 
  0x59, 0x15, 0xcf, 0xbd, 0xde, 0x0a, 0x48, 0xbc, 0x34, 0x63, 0x4f, 0x3e, 
  0x5b, 0xce, 0x44, 0xbd, 0x15, 0x05, 0xbd, 0x3d, 0x9a, 0xcb, 0x71, 0xbd, 
  0xd4, 0x01, 0xa4, 0xbd, 0xe8, 0x18, 0xba, 0x3d, 0x9b, 0x66, 0x02, 0x3e, 
  0x73, 0x10, 0xdb, 0x3d, 0x94, 0xd6, 0xe9, 0x3d, 0x0a, 0xb5, 0x03, 0x3d, 
  0xa9, 0x2d, 0x92, 0xbc, 0x0f, 0x54, 0xb0, 0x3d, 0x49, 0xcf, 0xf7, 0x3d, 
  0x2f, 0xf4, 0x75, 0x3d, 0x85, 0x3c, 0x1f, 0x3e, 0x90, 0x00, 0xed, 0xbc, 
  0x26, 0x11, 0x8b, 0x3e, 0x17, 0xfd, 0xc7, 0x3c, 0xcf, 0x62, 0xec, 0x3c, 
  0x07, 0x8b, 0x55, 0xbe, 0x26, 0x3c, 0x98, 0x3d, 0xef, 0xcf, 0x6d, 0x3c, 
  0x93, 0x42, 0x3b, 0x3e, 0x0a, 0x74, 0x83, 0x3d, 0xfb, 0x77, 0x2f, 0x3d, 
  0x70, 0x7a, 0x0f, 0xbe, 0xba, 0xf0, 0xd7, 0x3d, 0x7c, 0x1e, 0x3c, 0xbd, 
  0xa0, 0x88, 0x80, 0x3b, 0xfc, 0xdc, 0x8e, 0x3d, 0x27, 0x85, 0x23, 0xbe, 
  0x52, 0x6e, 0x28, 0xbe, 0xe3, 0x01, 0x03, 0xbe, 0xd8, 0x8b, 0x2c, 0x3d, 
  0xe7, 0x71, 0x71, 0x3d, 0xd3, 0xd7, 0xc4, 0xbd, 0xa8, 0x7d, 0x0c, 0xbe, 
  0xf0, 0x1f, 0x90, 0x3d, 0x98, 0x82, 0xa4, 0xbd, 0x64, 0x36, 0xd9, 0x3d, 
  0x25, 0x53, 0x58, 0x3e, 0x2f, 0xbf, 0x68, 0xbd, 0x48, 0xc9, 0xae, 0xbd, 
  0x84, 0xb1, 0xeb, 0xbd, 0x67, 0xf1, 0x09, 0xbd, 0xf4, 0xcb, 0x04, 0xbd, 
  0x10, 0x8d, 0x56, 0x3d, 0xcf, 0xe7, 0x71, 0xbd, 0x26, 0x6c, 0xa3, 0x3d, 
  0x9f, 0x8f, 0x09, 0x3e, 0xc5, 0xe1, 0x5e, 0xbc, 0xbd, 0x0e, 0x10, 0xbe, 
  0x73, 0x55, 0xc4, 0xbd, 0x41, 0x05, 0xa2, 0xbd, 0x68, 0x8f, 0x12, 0x3e, 
  0xee, 0xea, 0x93, 0x3d, 0x90, 0x53, 0xc3, 0xbd, 0x73, 0xb3, 0x31, 0xbd, 
  0x9a, 0x49, 0xd2, 0x3d, 0x5f, 0x79, 0xe3, 0xbc, 0x11, 0x92, 0x18, 0xbd, 
  0x27, 0x50, 0xe9, 0xbc, 0xd3, 0x66, 0x2e, 0x3e, 0xd4, 0x99, 0xa4, 0xbd, 
  0xbf, 0x84, 0xd5, 0x3d, 0x8b, 0xc6, 0x24, 0xbd, 0xed, 0x89, 0xfc, 0xbd, 
  0x30, 0xa4, 0x29, 0x3d, 0x51, 0xa9, 0x72, 0x3d, 0x4b, 0x75, 0xdb, 0xbd, 
  0xf8, 0x37, 0xc6, 0xbc, 0x36, 0x74, 0xcc, 0xbc, 0x29, 0x43, 0xae, 0xbd, 
  0xa4, 0x24, 0x52, 0x3e, 0x6f, 0x94, 0xa4, 0xbd, 0xb3, 0x5c, 0x1b, 0xbe, 
  0x76, 0xe9, 0xa2, 0x3c, 0x97, 0xd4, 0x7a, 0xbd, 0xdc, 0xbb, 0x91, 0x3c, 
  0xa3, 0xaa, 0x1d, 0xbe, 0xb8, 0xd8, 0xc8, 0xbc, 0xff, 0x30, 0xf9, 0xbd, 
  0x3d, 0x61, 0x34, 0xbd, 0xc0, 0x2d, 0xa7, 0x3d, 0xb1, 0xa7, 0xaf, 0xbc, 
  0x7c, 0xe8, 0x0a, 0xbe, 0x6a, 0xc0, 0xf2, 0xbd, 0x2c, 0x1b, 0x0c, 0x3d, 
  0xf9, 0xa8, 0xfb, 0x3d, 0xf3, 0x76, 0xe5, 0x3c, 0xd9, 0x79, 0xc5, 0x3d, 
  0x71, 0xd1, 0x06, 0xbe, 0xcb, 0x09, 0xd4, 0x3d, 0x43, 0xf7, 0x0d, 0x3e, 
  0xa1, 0x7a, 0xc0, 0xbd, 0xf4, 0xbf, 0xe0, 0x3d, 0x25, 0x02, 0x0b, 0xbe, 
  0x52, 0xe1, 0x2c, 0xbe, 0xb7, 0x0d, 0x22, 0x3e, 0xbc, 0x9a, 0x78, 0x3e, 
  0x6c, 0x61, 0xe0, 0x3d, 0x52, 0xbe, 0x78, 0xbd, 0x41, 0xc0, 0x07, 0x3e, 
  0x6e, 0x3b, 0x53, 0x3c, 0x9a, 0xfe, 0xff, 0xff, 0x04, 0x00, 0x00, 0x00, 
  0x0c, 0x00, 0x00, 0x00, 0xff, 0xff, 0xff, 0xff, 0xc4, 0x00, 0x00, 0x00, 
  0x20, 0x00, 0x00, 0x00, 0xb2, 0xfe, 0xff, 0xff, 0x04, 0x00, 0x00, 0x00, 
  0x10, 0x00, 0x00, 0x00, 0xb6, 0xdf, 0x2c, 0xbe, 0x1c, 0x3f, 0x33, 0xbd, 
  0xf7, 0xe4, 0x4d, 0x3e, 0x6a, 0x6a, 0x9a, 0xbc, 0xce, 0xfe, 0xff, 0xff, 
  0x04, 0x00, 0x00, 0x00, 0x80, 0x00, 0x00, 0x00, 0xd7, 0x48, 0x17, 0xbc, 
  0xa0, 0xf2, 0x05, 0x3d, 0x41, 0xe2, 0x87, 0x3d, 0x97, 0xa0, 0xf4, 0x3c, 
  0x2e, 0x44, 0xab, 0xbd, 0xac, 0x4d, 0x3d, 0x3e, 0x6e, 0x2e, 0xda, 0x3d, 
  0xce, 0xdc, 0xea, 0x3d, 0xb6, 0x13, 0x2c, 0x3e, 0x52, 0x8d, 0x82, 0xbd, 
  0x25, 0xc9, 0xd2, 0x3b, 0xf8, 0x18, 0xc4, 0xbc, 0x1c, 0x62, 0xc1, 0x3d, 
  0x0d, 0x06, 0x41, 0xbc, 0x5f, 0x57, 0xbb, 0xbd, 0x88, 0xc6, 0x3b, 0xbd, 
  0x79, 0xd3, 0x44, 0x3e, 0x38, 0x12, 0xb8, 0x3d, 0x75, 0x99, 0x0e, 0xbe, 
  0x1c, 0xb8, 0xcb, 0xbd, 0xaa, 0x6c, 0x4a, 0x3e, 0x11, 0x6e, 0xaa, 0xbd, 
  0x45, 0x1d, 0x95, 0xbd, 0xdf, 0xd9, 0x26, 0xbd, 0x95, 0x07, 0xc8, 0xbd, 
  0x69, 0xe7, 0x37, 0xbd, 0xe5, 0xca, 0xef, 0xbd, 0x18, 0x6e, 0xf1, 0xbd, 
  0x31, 0xe0, 0xf5, 0xbd, 0x92, 0xa1, 0x0d, 0x3d, 0x53, 0xf5, 0x0a, 0xbe, 
  0xd3, 0x3d, 0x33, 0x3d, 0x88, 0xf4, 0xff, 0xff, 0x8c, 0xf4, 0xff, 0xff, 
  0x0f, 0x00, 0x00, 0x00, 0x4d, 0x4c, 0x49, 0x52, 0x20, 0x43, 0x6f, 0x6e, 
  0x76, 0x65, 0x72, 0x74, 0x65, 0x64, 0x2e, 0x00, 0x01, 0x00, 0x00, 0x00, 
  0x14, 0x00, 0x00, 0x00, 0x00, 0x00, 0x0e, 0x00, 0x18, 0x00, 0x14, 0x00, 
  0x10, 0x00, 0x0c, 0x00, 0x08, 0x00, 0x04, 0x00, 0x0e, 0x00, 0x00, 0x00, 
  0x14, 0x00, 0x00, 0x00, 0x1c, 0x00, 0x00, 0x00, 0x14, 0x02, 0x00, 0x00, 
  0x18, 0x02, 0x00, 0x00, 0x1c, 0x02, 0x00, 0x00, 0x04, 0x00, 0x00, 0x00, 
  0x6d, 0x61, 0x69, 0x6e, 0x00, 0x00, 0x00, 0x00, 0x08, 0x00, 0x00, 0x00, 
  0xcc, 0x01, 0x00, 0x00, 0x68, 0x01, 0x00, 0x00, 0x24, 0x01, 0x00, 0x00, 
  0xf0, 0x00, 0x00, 0x00, 0xc8, 0x00, 0x00, 0x00, 0x88, 0x00, 0x00, 0x00, 
  0x50, 0x00, 0x00, 0x00, 0x14, 0x00, 0x00, 0x00, 0x00, 0x00, 0x0e, 0x00, 
  0x1a, 0x00, 0x14, 0x00, 0x10, 0x00, 0x0c, 0x00, 0x0b, 0x00, 0x04, 0x00, 
  0x0e, 0x00, 0x00, 0x00, 0x1c, 0x00, 0x00, 0x00, 0x00, 0x00, 0x00, 0x09, 
  0x1c, 0x00, 0x00, 0x00, 0x20, 0x00, 0x00, 0x00, 0x07, 0x00, 0x00, 0x00, 
  0x00, 0x00, 0x06, 0x00, 0x08, 0x00, 0x04, 0x00, 0x06, 0x00, 0x00, 0x00, 
  0x00, 0x00, 0x80, 0x3f, 0x01, 0x00, 0x00, 0x00, 0x11, 0x00, 0x00, 0x00, 
  0x01, 0x00, 0x00, 0x00, 0x10, 0x00, 0x00, 0x00, 0x0a, 0xff, 0xff, 0xff, 
  0x14, 0x00, 0x00, 0x00, 0x00, 0x00, 0x00, 0x08, 0x10, 0x00, 0x00, 0x00, 
  0x14, 0x00, 0x00, 0x00, 0x06, 0x00, 0x00, 0x00, 0x64, 0xf5, 0xff, 0xff, 
  0x01, 0x00, 0x00, 0x00, 0x10, 0x00, 0x00, 0x00, 0x03, 0x00, 0x00, 0x00, 
  0x0f, 0x00, 0x00, 0x00, 0x05, 0x00, 0x00, 0x00, 0x02, 0x00, 0x00, 0x00, 
  0x3e, 0xff, 0xff, 0xff, 0x14, 0x00, 0x00, 0x00, 0x00, 0x00, 0x00, 0x1b, 
  0x10, 0x00, 0x00, 0x00, 0x14, 0x00, 0x00, 0x00, 0x05, 0x00, 0x00, 0x00, 
  0x98, 0xf5, 0xff, 0xff, 0x01, 0x00, 0x00, 0x00, 0x0f, 0x00, 0x00, 0x00, 
  0x02, 0x00, 0x00, 0x00, 0x0e, 0x00, 0x00, 0x00, 0x08, 0x00, 0x00, 0x00, 
  0x00, 0x00, 0x0a, 0x00, 0x10, 0x00, 0x0c, 0x00, 0x08, 0x00, 0x04, 0x00, 
  0x0a, 0x00, 0x00, 0x00, 0x0c, 0x00, 0x00, 0x00, 0x10, 0x00, 0x00, 0x00, 
  0x04, 0x00, 0x00, 0x00, 0x01, 0x00, 0x00, 0x00, 0x0e, 0x00, 0x00, 0x00, 
  0x02, 0x00, 0x00, 0x00, 0x0d, 0x00, 0x00, 0x00, 0x03, 0x00, 0x00, 0x00, 
  0x9e, 0xff, 0xff, 0xff, 0x14, 0x00, 0x00, 0x00, 0x00, 0x00, 0x00, 0x0b, 
  0x10, 0x00, 0x00, 0x00, 0x14, 0x00, 0x00, 0x00, 0x03, 0x00, 0x00, 0x00, 
  0xf8, 0xf5, 0xff, 0xff, 0x01, 0x00, 0x00, 0x00, 0x0d, 0x00, 0x00, 0x00, 
  0x02, 0x00, 0x00, 0x00, 0x0c, 0x00, 0x00, 0x00, 0x06, 0x00, 0x00, 0x00, 
  0xce, 0xff, 0xff, 0xff, 0x14, 0x00, 0x00, 0x00, 0x00, 0x00, 0x00, 0x15, 
  0x10, 0x00, 0x00, 0x00, 0x14, 0x00, 0x00, 0x00, 0x02, 0x00, 0x00, 0x00, 
  0x28, 0xf6, 0xff, 0xff, 0x01, 0x00, 0x00, 0x00, 0x0c, 0x00, 0x00, 0x00, 
  0x02, 0x00, 0x00, 0x00, 0x0b, 0x00, 0x00, 0x00, 0x07, 0x00, 0x00, 0x00, 
  0x00, 0x00, 0x0e, 0x00, 0x18, 0x00, 0x14, 0x00, 0x10, 0x00, 0x0c, 0x00, 
  0x0b, 0x00, 0x04, 0x00, 0x0e, 0x00, 0x00, 0x00, 0x20, 0x00, 0x00, 0x00, 
  0x00, 0x00, 0x00, 0x01, 0x2c, 0x00, 0x00, 0x00, 0x30, 0x00, 0x00, 0x00, 
  0x01, 0x00, 0x00, 0x00, 0x0c, 0x00, 0x14, 0x00, 0x13, 0x00, 0x0c, 0x00, 
  0x08, 0x00, 0x07, 0x00, 0x0c, 0x00, 0x00, 0x00, 0x00, 0x00, 0x00, 0x01, 
  0x01, 0x00, 0x00, 0x00, 0x01, 0x00, 0x00, 0x00, 0x00, 0x00, 0x00, 0x01, 
  0x01, 0x00, 0x00, 0x00, 0x0b, 0x00, 0x00, 0x00, 0x03, 0x00, 0x00, 0x00, 
  0x0a, 0x00, 0x00, 0x00, 0x04, 0x00, 0x00, 0x00, 0x01, 0x00, 0x00, 0x00, 
  0x00, 0x00, 0x0e, 0x00, 0x14, 0x00, 0x00, 0x00, 0x10, 0x00, 0x0c, 0x00, 
  0x0b, 0x00, 0x04, 0x00, 0x0e, 0x00, 0x00, 0x00, 0x10, 0x00, 0x00, 0x00, 
  0x00, 0x00, 0x00, 0x34, 0x0c, 0x00, 0x00, 0x00, 0x10, 0x00, 0x00, 0x00, 
  0xc4, 0xf6, 0xff, 0xff, 0x01, 0x00, 0x00, 0x00, 0x0a, 0x00, 0x00, 0x00, 
  0x02, 0x00, 0x00, 0x00, 0x00, 0x00, 0x00, 0x00, 0x09, 0x00, 0x00, 0x00, 
  0x01, 0x00, 0x00, 0x00, 0x11, 0x00, 0x00, 0x00, 0x01, 0x00, 0x00, 0x00, 
  0x00, 0x00, 0x00, 0x00, 0x12, 0x00, 0x00, 0x00, 0x58, 0x08, 0x00, 0x00, 
  0x04, 0x08, 0x00, 0x00, 0xb0, 0x07, 0x00, 0x00, 0x70, 0x07, 0x00, 0x00, 
  0x10, 0x07, 0x00, 0x00, 0xd0, 0x06, 0x00, 0x00, 0x94, 0x06, 0x00, 0x00, 
  0x58, 0x06, 0x00, 0x00, 0x1c, 0x06, 0x00, 0x00, 0xbc, 0x05, 0x00, 0x00, 
  0x3c, 0x05, 0x00, 0x00, 0x64, 0x04, 0x00, 0x00, 0x7c, 0x03, 0x00, 0x00, 
  0x60, 0x02, 0x00, 0x00, 0x4c, 0x01, 0x00, 0x00, 0xdc, 0x00, 0x00, 0x00, 
  0x60, 0x00, 0x00, 0x00, 0x04, 0x00, 0x00, 0x00, 0x06, 0xf8, 0xff, 0xff, 
  0x00, 0x00, 0x00, 0x01, 0x14, 0x00, 0x00, 0x00, 0x1c, 0x00, 0x00, 0x00, 
  0x1c, 0x00, 0x00, 0x00, 0x12, 0x00, 0x00, 0x00, 0x34, 0x00, 0x00, 0x00, 
  0x02, 0x00, 0x00, 0x00, 0xff, 0xff, 0xff, 0xff, 0x04, 0x00, 0x00, 0x00, 
  0x60, 0xf7, 0xff, 0xff, 0x1b, 0x00, 0x00, 0x00, 0x53, 0x74, 0x61, 0x74, 
  0x65, 0x66, 0x75, 0x6c, 0x50, 0x61, 0x72, 0x74, 0x69, 0x74, 0x69, 0x6f, 
  0x6e, 0x65, 0x64, 0x43, 0x61, 0x6c, 0x6c, 0x5f, 0x31, 0x3a, 0x30, 0x00, 
  0x02, 0x00, 0x00, 0x00, 0x01, 0x00, 0x00, 0x00, 0x04, 0x00, 0x00, 0x00, 
  0x5e, 0xf8, 0xff, 0xff, 0x00, 0x00, 0x00, 0x01, 0x14, 0x00, 0x00, 0x00, 
  0x1c, 0x00, 0x00, 0x00, 0x1c, 0x00, 0x00, 0x00, 0x11, 0x00, 0x00, 0x00, 
  0x54, 0x00, 0x00, 0x00, 0x02, 0x00, 0x00, 0x00, 0xff, 0xff, 0xff, 0xff, 
  0x04, 0x00, 0x00, 0x00, 0xb8, 0xf7, 0xff, 0xff, 0x38, 0x00, 0x00, 0x00, 
  0x73, 0x65, 0x71, 0x75, 0x65, 0x6e, 0x74, 0x69, 0x61, 0x6c, 0x5f, 0x31, 
  0x2f, 0x64, 0x65, 0x6e, 0x73, 0x65, 0x5f, 0x31, 0x2f, 0x4d, 0x61, 0x74, 
  0x4d, 0x75, 0x6c, 0x3b, 0x73, 0x65, 0x71, 0x75, 0x65, 0x6e, 0x74, 0x69, 
  0x61, 0x6c, 0x5f, 0x31, 0x2f, 0x64, 0x65, 0x6e, 0x73, 0x65, 0x5f, 0x31, 
  0x2f, 0x42, 0x69, 0x61, 0x73, 0x41, 0x64, 0x64, 0x00, 0x00, 0x00, 0x00, 
  0x02, 0x00, 0x00, 0x00, 0x01, 0x00, 0x00, 0x00, 0x04, 0x00, 0x00, 0x00, 
  0xd6, 0xf8, 0xff, 0xff, 0x00, 0x00, 0x00, 0x01, 0x14, 0x00, 0x00, 0x00, 
  0x1c, 0x00, 0x00, 0x00, 0x1c, 0x00, 0x00, 0x00, 0x10, 0x00, 0x00, 0x00, 
  0x48, 0x00, 0x00, 0x00, 0x02, 0x00, 0x00, 0x00, 0xff, 0xff, 0xff, 0xff, 
  0x20, 0x00, 0x00, 0x00, 0x30, 0xf8, 0xff, 0xff, 0x2c, 0x00, 0x00, 0x00, 
  0x73, 0x65, 0x71, 0x75, 0x65, 0x6e, 0x74, 0x69, 0x61, 0x6c, 0x5f, 0x31, 
  0x2f, 0x67, 0x6c, 0x6f, 0x62, 0x61, 0x6c, 0x5f, 0x61, 0x76, 0x65, 0x72, 
  0x61, 0x67, 0x65, 0x5f, 0x70, 0x6f, 0x6f, 0x6c, 0x69, 0x6e, 0x67, 0x31, 
  0x64, 0x5f, 0x31, 0x2f, 0x4d, 0x65, 0x61, 0x6e, 0x00, 0x00, 0x00, 0x00, 
  0x02, 0x00, 0x00, 0x00, 0x01, 0x00, 0x00, 0x00, 0x20, 0x00, 0x00, 0x00, 
  0x42, 0xf9, 0xff, 0xff, 0x00, 0x00, 0x00, 0x01, 0x14, 0x00, 0x00, 0x00, 
  0x20, 0x00, 0x00, 0x00, 0x20, 0x00, 0x00, 0x00, 0x0f, 0x00, 0x00, 0x00, 
  0xe8, 0x00, 0x00, 0x00, 0x03, 0x00, 0x00, 0x00, 0xff, 0xff, 0xff, 0xff, 
  0xc4, 0x00, 0x00, 0x00, 0x20, 0x00, 0x00, 0x00, 0xa0, 0xf8, 0xff, 0xff, 
  0xca, 0x00, 0x00, 0x00, 0x73, 0x65, 0x71, 0x75, 0x65, 0x6e, 0x74, 0x69, 
  0x61, 0x6c, 0x5f, 0x31, 0x2f, 0x62, 0x61, 0x74, 0x63, 0x68, 0x5f, 0x6e, 
  0x6f, 0x72, 0x6d, 0x61, 0x6c, 0x69, 0x7a, 0x61, 0x74, 0x69, 0x6f, 0x6e, 
  0x5f, 0x31, 0x2f, 0x62, 0x61, 0x74, 0x63, 0x68, 0x6e, 0x6f, 0x72, 0x6d, 
  0x2f, 0x61, 0x64, 0x64, 0x5f, 0x31, 0x3b, 0x73, 0x65, 0x71, 0x75, 0x65, 
  0x6e, 0x74, 0x69, 0x61, 0x6c, 0x5f, 0x31, 0x2f, 0x63, 0x6f, 0x6e, 0x76, 
  0x31, 0x64, 0x5f, 0x31, 0x2f, 0x63, 0x6f, 0x6e, 0x76, 0x6f, 0x6c, 0x75, 
  0x74, 0x69, 0x6f, 0x6e, 0x2f, 0x53, 0x71, 0x75, 0x65, 0x65, 0x7a, 0x65, 
  0x3b, 0x73, 0x65, 0x71, 0x75, 0x65, 0x6e, 0x74, 0x69, 0x61, 0x6c, 0x5f, 
  0x31, 0x2f, 0x62, 0x61, 0x74, 0x63, 0x68, 0x5f, 0x6e, 0x6f, 0x72, 0x6d, 
  0x61, 0x6c, 0x69, 0x7a, 0x61, 0x74, 0x69, 0x6f, 0x6e, 0x5f, 0x31, 0x2f, 
  0x62, 0x61, 0x74, 0x63, 0x68, 0x6e, 0x6f, 0x72, 0x6d, 0x2f, 0x6d, 0x75, 
  0x6c, 0x5f, 0x31, 0x3b, 0x73, 0x65, 0x71, 0x75, 0x65, 0x6e, 0x74, 0x69, 
  0x61, 0x6c, 0x5f, 0x31, 0x2f, 0x63, 0x6f, 0x6e, 0x76, 0x31, 0x64, 0x5f, 
  0x31, 0x2f, 0x52, 0x65, 0x6c, 0x75, 0x3b, 0x73, 0x65, 0x71, 0x75, 0x65, 
  0x6e, 0x74, 0x69, 0x61, 0x6c, 0x5f, 0x31, 0x2f, 0x63, 0x6f, 0x6e, 0x76, 
  0x31, 0x64, 0x5f, 0x31, 0x2f, 0x42, 0x69, 0x61, 0x73, 0x41, 0x64, 0x64, 
  0x3b, 0x31, 0x00, 0x00, 0x03, 0x00, 0x00, 0x00, 0x01, 0x00, 0x00, 0x00, 
  0xc4, 0x00, 0x00, 0x00, 0x20, 0x00, 0x00, 0x00, 0x52, 0xfa, 0xff, 0xff, 
  0x00, 0x00, 0x00, 0x01, 0x14, 0x00, 0x00, 0x00, 0x24, 0x00, 0x00, 0x00, 
  0x24, 0x00, 0x00, 0x00, 0x0e, 0x00, 0x00, 0x00, 0xec, 0x00, 0x00, 0x00, 
  0x04, 0x00, 0x00, 0x00, 0xff, 0xff, 0xff, 0xff, 0x01, 0x00, 0x00, 0x00, 
  0xc4, 0x00, 0x00, 0x00, 0x20, 0x00, 0x00, 0x00, 0xb4, 0xf9, 0xff, 0xff, 
  0xc9, 0x00, 0x00, 0x00, 0x73, 0x65, 0x71, 0x75, 0x65, 0x6e, 0x74, 0x69, 
  0x61, 0x6c, 0x5f, 0x31, 0x2f, 0x62, 0x61, 0x74, 0x63, 0x68, 0x5f, 0x6e, 
  0x6f, 0x72, 0x6d, 0x61, 0x6c, 0x69, 0x7a, 0x61, 0x74, 0x69, 0x6f, 0x6e, 
  0x5f, 0x31, 0x2f, 0x62, 0x61, 0x74, 0x63, 0x68, 0x6e, 0x6f, 0x72, 0x6d, 
  0x2f, 0x61, 0x64, 0x64, 0x5f, 0x31, 0x3b, 0x73, 0x65, 0x71, 0x75, 0x65, 
  0x6e, 0x74, 0x69, 0x61, 0x6c, 0x5f, 0x31, 0x2f, 0x63, 0x6f, 0x6e, 0x76, 
  0x31, 0x64, 0x5f, 0x31, 0x2f, 0x63, 0x6f, 0x6e, 0x76, 0x6f, 0x6c, 0x75, 
  0x74, 0x69, 0x6f, 0x6e, 0x2f, 0x53, 0x71, 0x75, 0x65, 0x65, 0x7a, 0x65, 
  0x3b, 0x73, 0x65, 0x71, 0x75, 0x65, 0x6e, 0x74, 0x69, 0x61, 0x6c, 0x5f, 
  0x31, 0x2f, 0x62, 0x61, 0x74, 0x63, 0x68, 0x5f, 0x6e, 0x6f, 0x72, 0x6d, 
  0x61, 0x6c, 0x69, 0x7a, 0x61, 0x74, 0x69, 0x6f, 0x6e, 0x5f, 0x31, 0x2f, 
  0x62, 0x61, 0x74, 0x63, 0x68, 0x6e, 0x6f, 0x72, 0x6d, 0x2f, 0x6d, 0x75, 
  0x6c, 0x5f, 0x31, 0x3b, 0x73, 0x65, 0x71, 0x75, 0x65, 0x6e, 0x74, 0x69, 
  0x61, 0x6c, 0x5f, 0x31, 0x2f, 0x63, 0x6f, 0x6e, 0x76, 0x31, 0x64, 0x5f, 
  0x31, 0x2f, 0x52, 0x65, 0x6c, 0x75, 0x3b, 0x73, 0x65, 0x71, 0x75, 0x65, 
  0x6e, 0x74, 0x69, 0x61, 0x6c, 0x5f, 0x31, 0x2f, 0x63, 0x6f, 0x6e, 0x76, 
  0x31, 0x64, 0x5f, 0x31, 0x2f, 0x42, 0x69, 0x61, 0x73, 0x41, 0x64, 0x64, 
  0x3b, 0x00, 0x00, 0x00, 0x04, 0x00, 0x00, 0x00, 0x01, 0x00, 0x00, 0x00, 
  0x01, 0x00, 0x00, 0x00, 0xc4, 0x00, 0x00, 0x00, 0x20, 0x00, 0x00, 0x00, 
  0x6a, 0xfb, 0xff, 0xff, 0x00, 0x00, 0x00, 0x01, 0x14, 0x00, 0x00, 0x00, 
  0x24, 0x00, 0x00, 0x00, 0x24, 0x00, 0x00, 0x00, 0x0d, 0x00, 0x00, 0x00, 
  0xb8, 0x00, 0x00, 0x00, 0x04, 0x00, 0x00, 0x00, 0xff, 0xff, 0xff, 0xff, 
  0x01, 0x00, 0x00, 0x00, 0xc4, 0x00, 0x00, 0x00, 0x20, 0x00, 0x00, 0x00, 
  0xcc, 0xfa, 0xff, 0xff, 0x96, 0x00, 0x00, 0x00, 0x73, 0x65, 0x71, 0x75, 
  0x65, 0x6e, 0x74, 0x69, 0x61, 0x6c, 0x5f, 0x31, 0x2f, 0x62, 0x61, 0x74, 
  0x63, 0x68, 0x5f, 0x6e, 0x6f, 0x72, 0x6d, 0x61, 0x6c, 0x69, 0x7a, 0x61, 
  0x74, 0x69, 0x6f, 0x6e, 0x5f, 0x31, 0x2f, 0x62, 0x61, 0x74, 0x63, 0x68, 
  0x6e, 0x6f, 0x72, 0x6d, 0x2f, 0x6d, 0x75, 0x6c, 0x5f, 0x31, 0x3b, 0x73, 
  0x65, 0x71, 0x75, 0x65, 0x6e, 0x74, 0x69, 0x61, 0x6c, 0x5f, 0x31, 0x2f, 
  0x63, 0x6f, 0x6e, 0x76, 0x31, 0x64, 0x5f, 0x31, 0x2f, 0x63, 0x6f, 0x6e, 
  0x76, 0x6f, 0x6c, 0x75, 0x74, 0x69, 0x6f, 0x6e, 0x2f, 0x53, 0x71, 0x75, 
  0x65, 0x65, 0x7a, 0x65, 0x3b, 0x73, 0x65, 0x71, 0x75, 0x65, 0x6e, 0x74, 
  0x69, 0x61, 0x6c, 0x5f, 0x31, 0x2f, 0x63, 0x6f, 0x6e, 0x76, 0x31, 0x64, 
  0x5f, 0x31, 0x2f, 0x52, 0x65, 0x6c, 0x75, 0x3b, 0x73, 0x65, 0x71, 0x75, 
  0x65, 0x6e, 0x74, 0x69, 0x61, 0x6c, 0x5f, 0x31, 0x2f, 0x63, 0x6f, 0x6e, 
  0x76, 0x31, 0x64, 0x5f, 0x31, 0x2f, 0x42, 0x69, 0x61, 0x73, 0x41, 0x64, 
  0x64, 0x3b, 0x00, 0x00, 0x04, 0x00, 0x00, 0x00, 0x01, 0x00, 0x00, 0x00, 
  0x01, 0x00, 0x00, 0x00, 0xc4, 0x00, 0x00, 0x00, 0x20, 0x00, 0x00, 0x00, 
  0x4e, 0xfc, 0xff, 0xff, 0x00, 0x00, 0x00, 0x01, 0x14, 0x00, 0x00, 0x00, 
  0x24, 0x00, 0x00, 0x00, 0x24, 0x00, 0x00, 0x00, 0x0c, 0x00, 0x00, 0x00, 
  0xa8, 0x00, 0x00, 0x00, 0x04, 0x00, 0x00, 0x00, 0xff, 0xff, 0xff, 0xff, 
  0x01, 0x00, 0x00, 0x00, 0xc4, 0x00, 0x00, 0x00, 0x20, 0x00, 0x00, 0x00, 
  0xb0, 0xfb, 0xff, 0xff, 0x85, 0x00, 0x00, 0x00, 0x73, 0x65, 0x71, 0x75, 
  0x65, 0x6e, 0x74, 0x69, 0x61, 0x6c, 0x5f, 0x31, 0x2f, 0x63, 0x6f, 0x6e, 
  0x76, 0x31, 0x64, 0x5f, 0x31, 0x2f, 0x52, 0x65, 0x6c, 0x75, 0x3b, 0x73, 
  0x65, 0x71, 0x75, 0x65, 0x6e, 0x74, 0x69, 0x61, 0x6c, 0x5f, 0x31, 0x2f, 
  0x63, 0x6f, 0x6e, 0x76, 0x31, 0x64, 0x5f, 0x31, 0x2f, 0x42, 0x69, 0x61, 
  0x73, 0x41, 0x64, 0x64, 0x3b, 0x73, 0x65, 0x71, 0x75, 0x65, 0x6e, 0x74, 
  0x69, 0x61, 0x6c, 0x5f, 0x31, 0x2f, 0x63, 0x6f, 0x6e, 0x76, 0x31, 0x64, 
  0x5f, 0x31, 0x2f, 0x63, 0x6f, 0x6e, 0x76, 0x6f, 0x6c, 0x75, 0x74, 0x69, 
  0x6f, 0x6e, 0x2f, 0x53, 0x71, 0x75, 0x65, 0x65, 0x7a, 0x65, 0x3b, 0x3b, 
  0x73, 0x65, 0x71, 0x75, 0x65, 0x6e, 0x74, 0x69, 0x61, 0x6c, 0x5f, 0x31, 
  0x2f, 0x63, 0x6f, 0x6e, 0x76, 0x31, 0x64, 0x5f, 0x31, 0x2f, 0x63, 0x6f, 
  0x6e, 0x76, 0x6f, 0x6c, 0x75, 0x74, 0x69, 0x6f, 0x6e, 0x00, 0x00, 0x00, 
  0x04, 0x00, 0x00, 0x00, 0x01, 0x00, 0x00, 0x00, 0x01, 0x00, 0x00, 0x00, 
  0xc4, 0x00, 0x00, 0x00, 0x20, 0x00, 0x00, 0x00, 0x22, 0xfd, 0xff, 0xff, 
  0x00, 0x00, 0x00, 0x01, 0x14, 0x00, 0x00, 0x00, 0x24, 0x00, 0x00, 0x00, 
  0x24, 0x00, 0x00, 0x00, 0x0b, 0x00, 0x00, 0x00, 0x50, 0x00, 0x00, 0x00, 
  0x04, 0x00, 0x00, 0x00, 0xff, 0xff, 0xff, 0xff, 0x01, 0x00, 0x00, 0x00, 
  0xc8, 0x00, 0x00, 0x00, 0x06, 0x00, 0x00, 0x00, 0x84, 0xfc, 0xff, 0xff, 
  0x2c, 0x00, 0x00, 0x00, 0x73, 0x65, 0x71, 0x75, 0x65, 0x6e, 0x74, 0x69, 
  0x61, 0x6c, 0x5f, 0x31, 0x2f, 0x63, 0x6f, 0x6e, 0x76, 0x31, 0x64, 0x5f, 
  0x31, 0x2f, 0x63, 0x6f, 0x6e, 0x76, 0x6f, 0x6c, 0x75, 0x74, 0x69, 0x6f, 
  0x6e, 0x2f, 0x45, 0x78, 0x70, 0x61, 0x6e, 0x64, 0x44, 0x69, 0x6d, 0x73, 
  0x00, 0x00, 0x00, 0x00, 0x04, 0x00, 0x00, 0x00, 0x01, 0x00, 0x00, 0x00, 
  0x01, 0x00, 0x00, 0x00, 0xc8, 0x00, 0x00, 0x00, 0x06, 0x00, 0x00, 0x00, 
  0x7a, 0xfe, 0xff, 0xff, 0x00, 0x00, 0x00, 0x01, 0x14, 0x00, 0x00, 0x00, 
  0x14, 0x00, 0x00, 0x00, 0x0a, 0x00, 0x00, 0x00, 0x00, 0x00, 0x00, 0x02, 
  0x40, 0x00, 0x00, 0x00, 0xec, 0xfc, 0xff, 0xff, 0x30, 0x00, 0x00, 0x00, 
  0x73, 0x65, 0x71, 0x75, 0x65, 0x6e, 0x74, 0x69, 0x61, 0x6c, 0x5f, 0x31, 
  0x2f, 0x63, 0x6f, 0x6e, 0x76, 0x31, 0x64, 0x5f, 0x31, 0x2f, 0x63, 0x6f, 
  0x6e, 0x76, 0x6f, 0x6c, 0x75, 0x74, 0x69, 0x6f, 0x6e, 0x2f, 0x45, 0x78, 
  0x70, 0x61, 0x6e, 0x64, 0x44, 0x69, 0x6d, 0x73, 0x2f, 0x64, 0x69, 0x6d, 
  0x00, 0x00, 0x00, 0x00, 0x00, 0x00, 0x00, 0x00, 0xd6, 0xfe, 0xff, 0xff, 
  0x00, 0x00, 0x00, 0x01, 0x14, 0x00, 0x00, 0x00, 0x14, 0x00, 0x00, 0x00, 
  0x09, 0x00, 0x00, 0x00, 0x00, 0x00, 0x00, 0x02, 0x1c, 0x00, 0x00, 0x00, 
  0x48, 0xfd, 0xff, 0xff, 0x0f, 0x00, 0x00, 0x00, 0x61, 0x72, 0x69, 0x74, 
  0x68, 0x2e, 0x63, 0x6f, 0x6e, 0x73, 0x74, 0x61, 0x6e, 0x74, 0x37, 0x00, 
  0x00, 0x00, 0x00, 0x00, 0x82, 0xfe, 0xff, 0xff, 0x00, 0x00, 0x00, 0x01, 
  0x10, 0x00, 0x00, 0x00, 0x10, 0x00, 0x00, 0x00, 0x08, 0x00, 0x00, 0x00, 
  0x1c, 0x00, 0x00, 0x00, 0x7c, 0xfd, 0xff, 0xff, 0x0f, 0x00, 0x00, 0x00, 
  0x61, 0x72, 0x69, 0x74, 0x68, 0x2e, 0x63, 0x6f, 0x6e, 0x73, 0x74, 0x61, 
  0x6e, 0x74, 0x36, 0x00, 0x01, 0x00, 0x00, 0x00, 0x20, 0x00, 0x00, 0x00, 
  0xba, 0xfe, 0xff, 0xff, 0x00, 0x00, 0x00, 0x01, 0x10, 0x00, 0x00, 0x00, 
  0x10, 0x00, 0x00, 0x00, 0x07, 0x00, 0x00, 0x00, 0x1c, 0x00, 0x00, 0x00, 
  0xb4, 0xfd, 0xff, 0xff, 0x0f, 0x00, 0x00, 0x00, 0x61, 0x72, 0x69, 0x74, 
  0x68, 0x2e, 0x63, 0x6f, 0x6e, 0x73, 0x74, 0x61, 0x6e, 0x74, 0x35, 0x00, 
  0x01, 0x00, 0x00, 0x00, 0x20, 0x00, 0x00, 0x00, 0xf2, 0xfe, 0xff, 0xff, 
  0x00, 0x00, 0x00, 0x01, 0x10, 0x00, 0x00, 0x00, 0x10, 0x00, 0x00, 0x00, 
  0x06, 0x00, 0x00, 0x00, 0x1c, 0x00, 0x00, 0x00, 0xec, 0xfd, 0xff, 0xff, 
  0x0f, 0x00, 0x00, 0x00, 0x61, 0x72, 0x69, 0x74, 0x68, 0x2e, 0x63, 0x6f, 
  0x6e, 0x73, 0x74, 0x61, 0x6e, 0x74, 0x34, 0x00, 0x02, 0x00, 0x00, 0x00, 
  0x04, 0x00, 0x00, 0x00, 0x20, 0x00, 0x00, 0x00, 0x2e, 0xff, 0xff, 0xff, 
  0x00, 0x00, 0x00, 0x01, 0x10, 0x00, 0x00, 0x00, 0x10, 0x00, 0x00, 0x00, 
  0x05, 0x00, 0x00, 0x00, 0x1c, 0x00, 0x00, 0x00, 0x28, 0xfe, 0xff, 0xff, 
  0x0f, 0x00, 0x00, 0x00, 0x61, 0x72, 0x69, 0x74, 0x68, 0x2e, 0x63, 0x6f, 
  0x6e, 0x73, 0x74, 0x61, 0x6e, 0x74, 0x33, 0x00, 0x04, 0x00, 0x00, 0x00, 
  0x20, 0x00, 0x00, 0x00, 0x01, 0x00, 0x00, 0x00, 0x05, 0x00, 0x00, 0x00, 
  0x06, 0x00, 0x00, 0x00, 0x00, 0x00, 0x16, 0x00, 0x1c, 0x00, 0x18, 0x00, 
  0x17, 0x00, 0x10, 0x00, 0x0c, 0x00, 0x08, 0x00, 0x00, 0x00, 0x00, 0x00, 
  0x00, 0x00, 0x07, 0x00, 0x16, 0x00, 0x00, 0x00, 0x00, 0x00, 0x00, 0x01, 
  0x14, 0x00, 0x00, 0x00, 0x14, 0x00, 0x00, 0x00, 0x04, 0x00, 0x00, 0x00, 
  0x00, 0x00, 0x00, 0x02, 0x1c, 0x00, 0x00, 0x00, 0x88, 0xfe, 0xff, 0xff, 
  0x0f, 0x00, 0x00, 0x00, 0x61, 0x72, 0x69, 0x74, 0x68, 0x2e, 0x63, 0x6f, 
  0x6e, 0x73, 0x74, 0x61, 0x6e, 0x74, 0x32, 0x00, 0x01, 0x00, 0x00, 0x00, 
  0x03, 0x00, 0x00, 0x00, 0xc6, 0xff, 0xff, 0xff, 0x00, 0x00, 0x00, 0x01, 
  0x10, 0x00, 0x00, 0x00, 0x10, 0x00, 0x00, 0x00, 0x03, 0x00, 0x00, 0x00, 
  0x1c, 0x00, 0x00, 0x00, 0xc0, 0xfe, 0xff, 0xff, 0x0f, 0x00, 0x00, 0x00, 
  0x61, 0x72, 0x69, 0x74, 0x68, 0x2e, 0x63, 0x6f, 0x6e, 0x73, 0x74, 0x61, 
  0x6e, 0x74, 0x31, 0x00, 0x01, 0x00, 0x00, 0x00, 0x04, 0x00, 0x00, 0x00, 
  0x00, 0x00, 0x16, 0x00, 0x18, 0x00, 0x14, 0x00, 0x00, 0x00, 0x10, 0x00, 
  0x0c, 0x00, 0x08, 0x00, 0x00, 0x00, 0x00, 0x00, 0x00, 0x00, 0x07, 0x00, 
  0x16, 0x00, 0x00, 0x00, 0x00, 0x00, 0x00, 0x01, 0x10, 0x00, 0x00, 0x00, 
  0x10, 0x00, 0x00, 0x00, 0x02, 0x00, 0x00, 0x00, 0x1c, 0x00, 0x00, 0x00, 
  0x10, 0xff, 0xff, 0xff, 0x0e, 0x00, 0x00, 0x00, 0x61, 0x72, 0x69, 0x74, 
  0x68, 0x2e, 0x63, 0x6f, 0x6e, 0x73, 0x74, 0x61, 0x6e, 0x74, 0x00, 0x00, 
  0x01, 0x00, 0x00, 0x00, 0x20, 0x00, 0x00, 0x00, 0x00, 0x00, 0x16, 0x00, 
  0x1c, 0x00, 0x18, 0x00, 0x00, 0x00, 0x14, 0x00, 0x10, 0x00, 0x0c, 0x00, 
  0x00, 0x00, 0x00, 0x00, 0x08, 0x00, 0x07, 0x00, 0x16, 0x00, 0x00, 0x00, 
  0x00, 0x00, 0x00, 0x01, 0x14, 0x00, 0x00, 0x00, 0x20, 0x00, 0x00, 0x00, 
  0x20, 0x00, 0x00, 0x00, 0x01, 0x00, 0x00, 0x00, 0x3c, 0x00, 0x00, 0x00, 
  0x03, 0x00, 0x00, 0x00, 0xff, 0xff, 0xff, 0xff, 0xc8, 0x00, 0x00, 0x00, 
  0x06, 0x00, 0x00, 0x00, 0x74, 0xff, 0xff, 0xff, 0x1e, 0x00, 0x00, 0x00, 
  0x73, 0x65, 0x72, 0x76, 0x69, 0x6e, 0x67, 0x5f, 0x64, 0x65, 0x66, 0x61, 
  0x75, 0x6c, 0x74, 0x5f, 0x6b, 0x65, 0x72, 0x61, 0x73, 0x5f, 0x74, 0x65, 
  0x6e, 0x73, 0x6f, 0x72, 0x3a, 0x30, 0x00, 0x00, 0x03, 0x00, 0x00, 0x00, 
  0x01, 0x00, 0x00, 0x00, 0xc8, 0x00, 0x00, 0x00, 0x06, 0x00, 0x00, 0x00, 
  0x08, 0x00, 0x00, 0x00, 0x7c, 0x00, 0x00, 0x00, 0x60, 0x00, 0x00, 0x00, 
  0x50, 0x00, 0x00, 0x00, 0x48, 0x00, 0x00, 0x00, 0x34, 0x00, 0x00, 0x00, 
  0x24, 0x00, 0x00, 0x00, 0x14, 0x00, 0x00, 0x00, 0x04, 0x00, 0x00, 0x00, 
  0xb0, 0xff, 0xff, 0xff, 0x19, 0x00, 0x00, 0x00, 0x00, 0x00, 0x00, 0x19, 
  0xbc, 0xff, 0xff, 0xff, 0x09, 0x00, 0x00, 0x00, 0x00, 0x00, 0x00, 0x09, 
  0xc8, 0xff, 0xff, 0xff, 0x28, 0x00, 0x00, 0x00, 0x00, 0x00, 0x00, 0x28, 
  0xd4, 0xff, 0xff, 0xff, 0x16, 0x00, 0x00, 0x00, 0x00, 0x00, 0x00, 0x16, 
  0x04, 0x00, 0x04, 0x00, 0x04, 0x00, 0x00, 0x00, 0xe8, 0xff, 0xff, 0xff, 
  0x12, 0x00, 0x00, 0x00, 0x00, 0x00, 0x00, 0x12, 0xf4, 0xff, 0xff, 0xff, 
  0x03, 0x00, 0x00, 0x00, 0x00, 0x00, 0x00, 0x03, 0x0c, 0x00, 0x0c, 0x00, 
  0x0b, 0x00, 0x00, 0x00, 0x00, 0x00, 0x04, 0x00, 0x0c, 0x00, 0x00, 0x00, 
  0x46, 0x00, 0x00, 0x00, 0x00, 0x00, 0x00, 0x46, 
};
