const unsigned char model[] = {
  0x1c, 0x00, 0x00, 0x00, 0x54, 0x46, 0x4c, 0x33, 0x14, 0x00, 0x20, 0x00, 
  0x1c, 0x00, 0x18, 0x00, 0x14, 0x00, 0x10, 0x00, 0x0c, 0x00, 0x00, 0x00, 
  0x08, 0x00, 0x04, 0x00, 0x14, 0x00, 0x00, 0x00, 0x1c, 0x00, 0x00, 0x00, 
  0x8c, 0x00, 0x00, 0x00, 0xe4, 0x00, 0x00, 0x00, 0xf8, 0x14, 0x00, 0x00, 
  0x08, 0x15, 0x00, 0x00, 0x0c, 0x20, 0x00, 0x00, 0x03, 0x00, 0x00, 0x00, 
  0x01, 0x00, 0x00, 0x00, 0x04, 0x00, 0x00, 0x00, 0xfe, 0xe9, 0xff, 0xff, 
  0x0c, 0x00, 0x00, 0x00, 0x1c, 0x00, 0x00, 0x00, 0x3c, 0x00, 0x00, 0x00, 
  0x0f, 0x00, 0x00, 0x00, 0x73, 0x65, 0x72, 0x76, 0x69, 0x6e, 0x67, 0x5f, 
  0x64, 0x65, 0x66, 0x61, 0x75, 0x6c, 0x74, 0x00, 0x01, 0x00, 0x00, 0x00, 
  0x04, 0x00, 0x00, 0x00, 0x90, 0xff, 0xff, 0xff, 0x11, 0x00, 0x00, 0x00, 
  0x04, 0x00, 0x00, 0x00, 0x08, 0x00, 0x00, 0x00, 0x6f, 0x75, 0x74, 0x70, 
  0x75, 0x74, 0x5f, 0x30, 0x00, 0x00, 0x00, 0x00, 0x01, 0x00, 0x00, 0x00, 
  0x04, 0x00, 0x00, 0x00, 0xd2, 0xea, 0xff, 0xff, 0x04, 0x00, 0x00, 0x00, 
  0x0c, 0x00, 0x00, 0x00, 0x6b, 0x65, 0x72, 0x61, 0x73, 0x5f, 0x74, 0x65, 
  0x6e, 0x73, 0x6f, 0x72, 0x00, 0x00, 0x00, 0x00, 0x02, 0x00, 0x00, 0x00, 
  0x34, 0x00, 0x00, 0x00, 0x04, 0x00, 0x00, 0x00, 0xdc, 0xff, 0xff, 0xff, 
  0x14, 0x00, 0x00, 0x00, 0x04, 0x00, 0x00, 0x00, 0x13, 0x00, 0x00, 0x00, 
  0x43, 0x4f, 0x4e, 0x56, 0x45, 0x52, 0x53, 0x49, 0x4f, 0x4e, 0x5f, 0x4d, 
  0x45, 0x54, 0x41, 0x44, 0x41, 0x54, 0x41, 0x00, 0x08, 0x00, 0x0c, 0x00, 
  0x08, 0x00, 0x04, 0x00, 0x08, 0x00, 0x00, 0x00, 0x13, 0x00, 0x00, 0x00, 
  0x04, 0x00, 0x00, 0x00, 0x13, 0x00, 0x00, 0x00, 0x6d, 0x69, 0x6e, 0x5f, 
  0x72, 0x75, 0x6e, 0x74, 0x69, 0x6d, 0x65, 0x5f, 0x76, 0x65, 0x72, 0x73, 
  0x69, 0x6f, 0x6e, 0x00, 0x15, 0x00, 0x00, 0x00, 0x10, 0x14, 0x00, 0x00, 
  0x08, 0x14, 0x00, 0x00, 0x78, 0x13, 0x00, 0x00, 0x58, 0x13, 0x00, 0x00, 
  0x3c, 0x13, 0x00, 0x00, 0x2c, 0x04, 0x00, 0x00, 0x1c, 0x02, 0x00, 0x00, 
  0x8c, 0x01, 0x00, 0x00, 0xfc, 0x00, 0x00, 0x00, 0xe8, 0x00, 0x00, 0x00, 
  0xd4, 0x00, 0x00, 0x00, 0xcc, 0x00, 0x00, 0x00, 0xc4, 0x00, 0x00, 0x00, 
  0xbc, 0x00, 0x00, 0x00, 0xb4, 0x00, 0x00, 0x00, 0xac, 0x00, 0x00, 0x00, 
  0xa4, 0x00, 0x00, 0x00, 0x9c, 0x00, 0x00, 0x00, 0x94, 0x00, 0x00, 0x00, 
  0x74, 0x00, 0x00, 0x00, 0x04, 0x00, 0x00, 0x00, 0xa2, 0xeb, 0xff, 0xff, 
  0x04, 0x00, 0x00, 0x00, 0x60, 0x00, 0x00, 0x00, 0x10, 0x00, 0x00, 0x00, 
  0x00, 0x00, 0x00, 0x00, 0x08, 0x00, 0x0e, 0x00, 0x08, 0x00, 0x04, 0x00, 
  0x08, 0x00, 0x00, 0x00, 0x10, 0x00, 0x00, 0x00, 0x24, 0x00, 0x00, 0x00, 
  0x00, 0x00, 0x06, 0x00, 0x08, 0x00, 0x04, 0x00, 0x06, 0x00, 0x00, 0x00, 
  0x04, 0x00, 0x00, 0x00, 0x00, 0x00, 0x00, 0x00, 0x0c, 0x00, 0x18, 0x00, 
  0x14, 0x00, 0x10, 0x00, 0x0c, 0x00, 0x04, 0x00, 0x0c, 0x00, 0x00, 0x00, 
  0x8f, 0x3c, 0x90, 0x46, 0x07, 0x1b, 0x68, 0x93, 0x02, 0x00, 0x00, 0x00, 
  0x02, 0x00, 0x00, 0x00, 0x04, 0x00, 0x00, 0x00, 0x06, 0x00, 0x00, 0x00, 
  0x32, 0x2e, 0x32, 0x30, 0x2e, 0x30, 0x00, 0x00, 0x0e, 0xec, 0xff, 0xff, 
  0x04, 0x00, 0x00, 0x00, 0x10, 0x00, 0x00, 0x00, 0x31, 0x2e, 0x31, 0x30, 
  0x2e, 0x30, 0x00, 0x00, 0x00, 0x00, 0x00, 0x00, 0x00, 0x00, 0x00, 0x00, 
  0x58, 0xe1, 0xff, 0xff, 0x5c, 0xe1, 0xff, 0xff, 0x60, 0xe1, 0xff, 0xff, 
  0x64, 0xe1, 0xff, 0xff, 0x68, 0xe1, 0xff, 0xff, 0x6c, 0xe1, 0xff, 0xff, 
  0x70, 0xe1, 0xff, 0xff, 0x74, 0xe1, 0xff, 0xff, 0x4a, 0xec, 0xff, 0xff, 
  0x04, 0x00, 0x00, 0x00, 0x04, 0x00, 0x00, 0x00, 0xfd, 0xff, 0xff, 0xff, 
  0x5a, 0xec, 0xff, 0xff, 0x04, 0x00, 0x00, 0x00, 0x04, 0x00, 0x00, 0x00, 
  0x01, 0x00, 0x00, 0x00, 0x6a, 0xec, 0xff, 0xff, 0x04, 0x00, 0x00, 0x00, 
  0x80, 0x00, 0x00, 0x00, 0xda, 0xba, 0x59, 0x40, 0xd1, 0xa2, 0x96, 0x40, 
  0x6d, 0xc3, 0xa6, 0x40, 0xc6, 0x3f, 0x79, 0x40, 0x59, 0x6a, 0x1c, 0x40, 
  0x35, 0xa4, 0xa1, 0x40, 0x79, 0x7a, 0x3f, 0x40, 0xb9, 0x92, 0x6b, 0x40, 
  0xd6, 0xec, 0x73, 0x40, 0x9e, 0xf4, 0x65, 0x40, 0x97, 0x13, 0xe1, 0x3f, 
  0xba, 0xa3, 0xca, 0x40, 0x63, 0xc0, 0xaf, 0x40, 0x87, 0xdf, 0x0e, 0x40, 
  0x5e, 0x27, 0xbd, 0x40, 0x12, 0x63, 0x1e, 0x41, 0xf1, 0xf0, 0x86, 0x40, 
  0xae, 0xae, 0x33, 0x40, 0x74, 0x0d, 0x78, 0x40, 0x21, 0x3d, 0xd7, 0x40, 
  0x00, 0xdf, 0x8f, 0x40, 0x83, 0xa6, 0xad, 0x40, 0x73, 0x89, 0xd5, 0x40, 
  0x69, 0xe2, 0x6e, 0x40, 0xa3, 0x41, 0xab, 0x40, 0x23, 0x20, 0xa1, 0x40, 
  0x36, 0x3b, 0x76, 0x40, 0xf5, 0xb4, 0xa6, 0x40, 0x34, 0x97, 0xe7, 0x40, 
  0xd1, 0x54, 0x47, 0x40, 0x5d, 0x79, 0x37, 0x40, 0x17, 0xa7, 0x82, 0x40, 
  0xf6, 0xec, 0xff, 0xff, 0x04, 0x00, 0x00, 0x00, 0x80, 0x00, 0x00, 0x00, 
  0x86, 0x89, 0x0c, 0xbf, 0x16, 0x1e, 0xee, 0xbe, 0x0e, 0x72, 0x29, 0xbf, 
  0xc8, 0x57, 0x17, 0xbf, 0xa5, 0xd8, 0xde, 0xbe, 0x34, 0xcd, 0x12, 0xbf, 
  0x5e, 0x35, 0x3f, 0xbf, 0x70, 0xc1, 0x27, 0xbf, 0x34, 0xd1, 0xf8, 0xbe, 
  0x4e, 0x14, 0x14, 0xbf, 0x19, 0xaf, 0x05, 0xbf, 0x34, 0x10, 0x18, 0xbf, 
  0xa4, 0x43, 0x4c, 0xbf, 0xc9, 0xda, 0xed, 0xbe, 0x61, 0x52, 0x3e, 0xbf, 
  0x11, 0x51, 0xa3, 0xbe, 0x34, 0xa7, 0x79, 0xbf, 0xf8, 0x2f, 0x24, 0xbf, 
  0x06, 0xe0, 0xb7, 0xbf, 0xa5, 0x39, 0xff, 0xbe, 0xcd, 0x33, 0x90, 0xbf, 
  0x66, 0x3b, 0x1e, 0xbf, 0x06, 0xa4, 0x15, 0xbf, 0xb6, 0x79, 0x46, 0xbf, 
  0xcf, 0x83, 0xf6, 0xbe, 0x45, 0x99, 0x29, 0xbf, 0xe3, 0x27, 0x08, 0xbf, 
  0xb8, 0x6c, 0xe7, 0xbe, 0xe9, 0x25, 0x27, 0xbf, 0x61, 0x9b, 0x15, 0xbf, 
  0xce, 0xe8, 0xdd, 0xbe, 0x74, 0xd6, 0x0a, 0xbf, 0x82, 0xed, 0xff, 0xff, 
  0x04, 0x00, 0x00, 0x00, 0x00, 0x02, 0x00, 0x00, 0x87, 0x2a, 0x8f, 0xbe, 
  0x92, 0xfb, 0x0e, 0xbe, 0xcc, 0x08, 0x07, 0xbf, 0xde, 0x3c, 0x4b, 0xbf, 
  0x9b, 0xab, 0xfe, 0xbe, 0x89, 0x21, 0x4b, 0xbf, 0xa0, 0x99, 0x09, 0xbf, 
  0xb6, 0x97, 0x00, 0xbf, 0x80, 0x9d, 0x20, 0xbf, 0x17, 0xc3, 0x88, 0xbe, 
  0x3e, 0xd1, 0x34, 0x3e, 0x39, 0x8b, 0x1e, 0xbe, 0x5d, 0xd6, 0x87, 0xbd, 
  0xf6, 0x2c, 0x96, 0xbe, 0x6a, 0x32, 0x2b, 0xbf, 0xd1, 0x4c, 0xed, 0xbe, 
  0x68, 0x76, 0x50, 0x3e, 0xab, 0x5a, 0x02, 0xbf, 0xba, 0x05, 0x01, 0x3f, 
  0x49, 0x1e, 0x1b, 0xbf, 0xe2, 0xb0, 0xc4, 0x3e, 0x9a, 0xe5, 0x1d, 0xbf, 
  0xcc, 0xc6, 0xc0, 0xbe, 0xf1, 0xe8, 0x0b, 0xbe, 0xb1, 0x51, 0x03, 0xbf, 
  0x70, 0xc4, 0xe3, 0xbe, 0x52, 0x40, 0x22, 0xbf, 0x5a, 0xcd, 0x0b, 0xbe, 
  0xec, 0x5b, 0x9e, 0xbe, 0x09, 0xc9, 0x8b, 0xbd, 0xc1, 0x0c, 0x29, 0xbf, 
  0xba, 0x81, 0x27, 0xbf, 0xb7, 0xc4, 0x01, 0xbf, 0x68, 0xb0, 0x57, 0xbe, 
  0x49, 0xf4, 0x62, 0x3e, 0x6d, 0x04, 0xcc, 0x3e, 0x0a, 0x19, 0x07, 0xbf, 
  0xc9, 0x56, 0xc9, 0x3e, 0xed, 0xe7, 0x2d, 0x3e, 0xf4, 0x2a, 0xda, 0x3e, 
  0x04, 0x11, 0x59, 0xbf, 0xac, 0xa3, 0x27, 0xbf, 0xcd, 0xaf, 0x0e, 0xbf, 
  0xd2, 0x17, 0xa4, 0x3e, 0xb0, 0x6b, 0x0e, 0x3f, 0x3a, 0x8c, 0xf3, 0xbe, 
  0x0b, 0x0d, 0x3c, 0x3f, 0x7a, 0x85, 0x08, 0x3f, 0x25, 0x19, 0x2d, 0xbe, 
  0x64, 0x91, 0xf4, 0x3e, 0x7f, 0xb7, 0x32, 0xbe, 0xa0, 0x8d, 0x4d, 0x3f, 
  0x38, 0xa1, 0xed, 0x3e, 0x3b, 0xd4, 0x61, 0x3c, 0xed, 0x9a, 0xa0, 0xbe, 
  0xa9, 0x22, 0xab, 0x3e, 0x4a, 0x09, 0x1d, 0x3e, 0xb6, 0x3e, 0x98, 0x3e, 
  0x88, 0xb3, 0x61, 0x3e, 0x5f, 0xdd, 0x1a, 0x3f, 0x1e, 0x57, 0xa3, 0x3e, 
  0x60, 0x3f, 0x4e, 0xbf, 0xa7, 0x96, 0xf6, 0xbe, 0x29, 0x38, 0x79, 0xbe, 
  0xfb, 0x26, 0x67, 0xbe, 0x6d, 0x40, 0x30, 0x3f, 0x68, 0xfc, 0x83, 0xbd, 
  0x6c, 0x63, 0xce, 0xbe, 0x43, 0xff, 0x1d, 0x3f, 0xe1, 0xb5, 0x98, 0xbe, 
  0x05, 0x7d, 0x07, 0xbf, 0xd7, 0x14, 0x1b, 0xbe, 0x1f, 0x88, 0xe6, 0x3c, 
  0xfb, 0x3f, 0x08, 0x3f, 0x82, 0x61, 0xb6, 0x3e, 0xd7, 0x07, 0x00, 0xbf, 
  0xff, 0x7a, 0x02, 0x3f, 0xaa, 0x48, 0xff, 0x3e, 0x69, 0xe3, 0x3a, 0x3f, 
  0x4a, 0x58, 0xb8, 0xbe, 0x64, 0xd7, 0x48, 0x3d, 0xdd, 0x06, 0x2e, 0xbd, 
  0x7d, 0xe9, 0x43, 0xbe, 0x13, 0xa6, 0x26, 0xbe, 0xb5, 0xaf, 0xe0, 0xbe, 
  0xcb, 0x86, 0x2c, 0x3f, 0x61, 0x8b, 0x30, 0x3f, 0x81, 0xd9, 0x25, 0xbf, 
  0xd7, 0xe4, 0x06, 0x3f, 0x5f, 0xef, 0x1d, 0xbe, 0xca, 0x3e, 0x9e, 0x3d, 
  0x8b, 0x66, 0x04, 0x3f, 0x64, 0xcb, 0x4f, 0x3f, 0xef, 0x71, 0x46, 0x3e, 
  0x35, 0x4d, 0x1b, 0x3f, 0xd8, 0x42, 0x2d, 0x3f, 0x1d, 0x0a, 0x05, 0x3f, 
  0xf0, 0x81, 0xbb, 0x3e, 0xce, 0xcb, 0x3d, 0x3f, 0x19, 0x7a, 0xe4, 0x3e, 
  0x25, 0xb4, 0xb0, 0x3e, 0x23, 0x20, 0xe6, 0x3e, 0x70, 0xe7, 0x4e, 0x3f, 
  0xc1, 0xf3, 0x3e, 0xbe, 0xe5, 0x29, 0x13, 0x3f, 0xd6, 0xeb, 0x04, 0xbc, 
  0x81, 0x3c, 0xb2, 0x3d, 0x2c, 0xdb, 0x33, 0x3e, 0x8d, 0xff, 0xd0, 0xbe, 
  0x5e, 0xd3, 0xb7, 0x3d, 0x38, 0x53, 0x56, 0xbf, 0x9a, 0xd0, 0xcb, 0xbd, 
  0x46, 0xec, 0x46, 0xbf, 0xfd, 0x89, 0xcf, 0x3e, 0x08, 0x59, 0x10, 0x3f, 
  0xac, 0x55, 0x9d, 0xbe, 0xee, 0x0b, 0x86, 0xbe, 0x43, 0x83, 0x2b, 0x3e, 
  0xc6, 0xd1, 0xd9, 0x3d, 0xf0, 0xb1, 0x2d, 0x3f, 0x04, 0x37, 0x35, 0xbf, 
  0xf5, 0x8a, 0x3d, 0x3f, 0x84, 0x72, 0x01, 0x3f, 0x81, 0x31, 0x67, 0xbe, 
  0x23, 0xd5, 0x2b, 0xbf, 0x4b, 0x67, 0x10, 0x3f, 0x7f, 0x22, 0xaf, 0x3e, 
  0x50, 0x6e, 0x96, 0x3e, 0x8e, 0xef, 0xff, 0xff, 0x04, 0x00, 0x00, 0x00, 
  0x00, 0x0f, 0x00, 0x00, 0xea, 0x82, 0xea, 0xbd, 0x7a, 0x38, 0x41, 0x3d, 
  0xb9, 0x50, 0xb1, 0xbc, 0x7d, 0xab, 0x1c, 0x3d, 0xee, 0x86, 0x04, 0x3e, 
  0xb5, 0x24, 0xc8, 0x3d, 0xef, 0xbc, 0xc6, 0x3d, 0xea, 0xd6, 0x53, 0xbd, 
  0xab, 0x45, 0xd3, 0xbd, 0xef, 0x45, 0xe5, 0xbd, 0x10, 0x45, 0x1e, 0xbe, 
  0x78, 0xe0, 0x19, 0x3e, 0xdd, 0xa7, 0xc3, 0xbd, 0x93, 0x32, 0xc5, 0xbd, 
  0x46, 0xdd, 0x00, 0x3e, 0x43, 0x77, 0x49, 0xbe, 0x5b, 0x4b, 0x3b, 0x3d, 
  0x10, 0xa0, 0xad, 0x3d, 0x2e, 0xfc, 0x3a, 0x3c, 0xdb, 0x58, 0xe7, 0xbd, 
  0x5c, 0xba, 0x7f, 0xbd, 0xbb, 0x66, 0xcc, 0x3d, 0x5a, 0x2d, 0x29, 0xbe, 
  0x94, 0xba, 0x3f, 0x3d, 0x68, 0x92, 0x07, 0x3e, 0x7e, 0x66, 0x05, 0xbe, 
  0xc7, 0xf2, 0x43, 0x3e, 0x06, 0x9a, 0xff, 0xbd, 0x05, 0xcb, 0x99, 0x3d, 
  0xc1, 0xc1, 0x75, 0x3c, 0x03, 0x4f, 0x37, 0xbb, 0x75, 0x68, 0x40, 0x3b, 
  0xaa, 0xe2, 0x90, 0x3c, 0xb2, 0x3d, 0x8d, 0xbc, 0xf1, 0x4d, 0x0a, 0x3e, 
  0xd4, 0x64, 0x2d, 0xbe, 0x80, 0x8c, 0xd3, 0xbd, 0x08, 0x71, 0xda, 0xbd, 
  0x19, 0x4d, 0xb7, 0xbd, 0x0a, 0x14, 0x11, 0xba, 0x16, 0xf4, 0xb2, 0xbd, 
  0x44, 0xdf, 0x95, 0x3d, 0x96, 0x09, 0x0a, 0x3e, 0x98, 0x70, 0x85, 0xbd, 
  0x04, 0xc6, 0x43, 0x3e, 0x89, 0xcf, 0xfa, 0x3d, 0x9e, 0xd3, 0x1d, 0x3e, 
  0x5e, 0x1b, 0x46, 0xbe, 0x9e, 0x93, 0x71, 0x3d, 0x25, 0x07, 0xe2, 0x3d, 
  0x2e, 0xfc, 0x6a, 0xbd, 0x69, 0xb1, 0x2c, 0xbb, 0xd6, 0x37, 0xe3, 0xbd, 
  0xa2, 0xf8, 0x27, 0xbe, 0x8d, 0x89, 0xba, 0xbd, 0x32, 0x90, 0x14, 0x3e, 
  0x39, 0xc8, 0x42, 0xbd, 0x10, 0x81, 0xe6, 0x3c, 0x93, 0x84, 0xc3, 0xbd, 
  0xec, 0x10, 0xfb, 0xbc, 0x39, 0xa5, 0xdd, 0xbd, 0x4e, 0xd8, 0xfa, 0xbc, 
  0x48, 0x04, 0x26, 0x3e, 0x7b, 0x6c, 0x53, 0xbe, 0xe9, 0x11, 0x32, 0x3e, 
  0xb6, 0x9e, 0x1c, 0x3e, 0x2d, 0x7d, 0xc6, 0xbd, 0xf2, 0x30, 0xc6, 0x3d, 
  0x09, 0x8b, 0x6d, 0x3d, 0x8b, 0xee, 0xfb, 0x3d, 0xec, 0x23, 0x86, 0x3d, 
  0xce, 0x91, 0x93, 0xbd, 0xcf, 0x5a, 0x40, 0xbd, 0x6d, 0xae, 0x21, 0xbe, 
  0x4d, 0x18, 0x04, 0x3e, 0x10, 0x54, 0x04, 0x3e, 0xa3, 0x89, 0xd0, 0xbd, 
  0xfb, 0x4c, 0x81, 0xbd, 0x4d, 0xd0, 0xdc, 0x3d, 0xa8, 0xa2, 0x0c, 0x3d, 
  0xc5, 0x88, 0xbf, 0x3b, 0xb9, 0x3f, 0x24, 0xbe, 0x72, 0xf7, 0xf9, 0xb9, 
  0x37, 0xf9, 0x53, 0xbd, 0xa9, 0x07, 0x97, 0x3d, 0x18, 0x67, 0xa5, 0x3d, 
  0xf8, 0xd9, 0x44, 0x3e, 0x66, 0x79, 0x3b, 0x3d, 0xf4, 0x4e, 0xf2, 0xbd, 
  0xf2, 0xb6, 0xd1, 0x3d, 0x79, 0x4c, 0x44, 0x3d, 0x56, 0x72, 0x7b, 0xbd, 
  0x12, 0xc0, 0x13, 0x3e, 0x0f, 0xaa, 0xc3, 0xbd, 0xe7, 0x91, 0x81, 0x3d, 
  0x58, 0xa3, 0xac, 0x3d, 0xd1, 0x94, 0xb5, 0xbd, 0x54, 0x7b, 0x6d, 0xbb, 
  0x68, 0xe4, 0x3b, 0x3e, 0x2f, 0xf7, 0x59, 0x3d, 0x96, 0x6d, 0xef, 0xbd, 
  0xd1, 0xbb, 0xdf, 0x3c, 0x90, 0x23, 0x6e, 0xbd, 0xdf, 0x0f, 0xae, 0x3d, 
  0xc1, 0xe3, 0x4a, 0x3d, 0xda, 0xa3, 0xcb, 0x3c, 0x4e, 0xe4, 0xf1, 0x3d, 
  0x7f, 0x50, 0x3c, 0x3b, 0x0f, 0xba, 0x53, 0x3e, 0x28, 0x46, 0x94, 0xbd, 
  0x5c, 0x74, 0xc0, 0x3b, 0x82, 0xae, 0xb2, 0x3d, 0x33, 0x65, 0x08, 0xbd, 
  0xad, 0xcf, 0x84, 0xbc, 0xe4, 0x8a, 0xb9, 0xbd, 0x03, 0xf3, 0x90, 0x3c, 
  0x29, 0x3e, 0xa2, 0x3e, 0x48, 0xb1, 0x55, 0xbd, 0xd0, 0x15, 0x34, 0xbe, 
  0x3c, 0x96, 0x03, 0xbd, 0x23, 0xa8, 0x0f, 0x3d, 0xce, 0xae, 0x48, 0x3c, 
  0xf6, 0x9f, 0x14, 0x3e, 0x21, 0x10, 0x05, 0xbc, 0x43, 0x00, 0x62, 0xbd, 
  0x00, 0xdd, 0x9d, 0xbe, 0xb6, 0xf5, 0x04, 0x3e, 0x4f, 0x29, 0x88, 0x3d, 
  0x2a, 0x1d, 0x1c, 0xbe, 0x7a, 0x80, 0x10, 0x3e, 0x5b, 0x66, 0xe9, 0x3c, 
  0x84, 0x31, 0x38, 0xbe, 0x17, 0x54, 0x91, 0xbc, 0x03, 0xc6, 0x8f, 0x3d, 
  0xd7, 0x4b, 0x13, 0x3d, 0x7d, 0x17, 0xe7, 0xbd, 0x15, 0x61, 0x92, 0xbc, 
  0x55, 0x74, 0xad, 0xbd, 0x6b, 0x9c, 0x96, 0xbd, 0x60, 0x21, 0x26, 0x3c, 
  0xe5, 0xe1, 0xc9, 0x3d, 0x53, 0x98, 0x03, 0x3e, 0x5d, 0x93, 0x59, 0xbd, 
  0x16, 0xcc, 0xcd, 0x3c, 0x65, 0x09, 0x75, 0xbc, 0x30, 0xdb, 0xe7, 0x3d, 
  0xa5, 0x0f, 0xec, 0xbd, 0xa9, 0x07, 0xda, 0x3d, 0x56, 0xd7, 0xce, 0x3d, 
  0xf3, 0x58, 0x80, 0xbe, 0x72, 0x93, 0xfa, 0x3d, 0xfc, 0xff, 0x0f, 0xbe, 
  0x87, 0x58, 0x1c, 0x3e, 0x3d, 0x55, 0x9b, 0x3d, 0xe5, 0x43, 0x89, 0x3d, 
  0x73, 0x67, 0x47, 0x3d, 0xeb, 0x49, 0x33, 0xbe, 0x32, 0xc3, 0xc0, 0x3d, 
  0x65, 0x56, 0x69, 0x3e, 0xf7, 0x44, 0x09, 0x3c, 0xaa, 0x74, 0xce, 0xbd, 
  0xa9, 0x19, 0xda, 0x3d, 0xfe, 0x37, 0xe5, 0xb8, 0xc6, 0xa1, 0x44, 0xbd, 
  0x66, 0x2b, 0xb4, 0xbc, 0x30, 0xc7, 0x1e, 0xbe, 0xe8, 0xae, 0x6a, 0xbd, 
  0x53, 0x31, 0xa9, 0xbd, 0x18, 0x2e, 0x04, 0xbd, 0xe1, 0x52, 0x1d, 0x3e, 
  0xd8, 0x9b, 0x86, 0xbd, 0x2a, 0x83, 0x1d, 0x3e, 0xd2, 0x95, 0xbf, 0x3d, 
  0xee, 0xef, 0x22, 0xbe, 0x91, 0x75, 0xc8, 0x3d, 0xef, 0xe6, 0x1f, 0xbd, 
  0x19, 0x91, 0x88, 0x3e, 0xbc, 0x02, 0x66, 0xbd, 0x59, 0xec, 0x02, 0xbe, 
  0x01, 0x00, 0x00, 0x3e, 0xca, 0x63, 0xa9, 0xbd, 0xe2, 0xfd, 0x3b, 0x3a, 
  0x61, 0x83, 0x2a, 0x3d, 0x5f, 0x23, 0xd1, 0xbd, 0x7b, 0x92, 0xc8, 0x3d, 
  0xef, 0x46, 0xfa, 0x3d, 0xbe, 0xbc, 0x17, 0xbd, 0x91, 0x71, 0xa9, 0x3d, 
  0x96, 0x4c, 0xa1, 0xbc, 0x8a, 0x34, 0xc6, 0xbd, 0xb1, 0x29, 0x11, 0xbd, 
  0x99, 0x83, 0x37, 0xbe, 0x5c, 0xaa, 0x8f, 0xbd, 0x11, 0x6d, 0x86, 0x3d, 
  0xe7, 0x34, 0x48, 0x3e, 0x33, 0x04, 0x79, 0xbd, 0x74, 0xe5, 0xfd, 0x3d, 
  0x7f, 0xf4, 0x08, 0x3e, 0x30, 0x19, 0xbf, 0xbd, 0xdf, 0x59, 0x26, 0x3d, 
  0xdd, 0xa5, 0x5f, 0x3e, 0x71, 0xb7, 0x50, 0xbc, 0x7b, 0xf9, 0x71, 0xbc, 
  0x29, 0xce, 0xf7, 0x3b, 0x21, 0x75, 0xf7, 0x3d, 0x8b, 0xd3, 0x4c, 0xbe, 
  0x9e, 0x79, 0x97, 0x3e, 0xbd, 0x99, 0x94, 0x3d, 0xd6, 0xe8, 0x5a, 0xbe, 
  0x71, 0xf8, 0xb8, 0x3d, 0xe9, 0x5b, 0x0e, 0x3e, 0x27, 0x97, 0xc2, 0x3d, 
  0x99, 0x84, 0x57, 0xbe, 0xff, 0x5f, 0x05, 0x3d, 0x1f, 0xdc, 0xf0, 0xbd, 
  0x96, 0xe3, 0x10, 0x3e, 0x6f, 0xc8, 0x02, 0x3e, 0xc2, 0xfd, 0x11, 0xbe, 
  0xb4, 0x59, 0x6c, 0x3d, 0x74, 0xb0, 0x0b, 0x3d, 0xbc, 0x2d, 0xac, 0x3d, 
  0x7c, 0xad, 0xd0, 0xbd, 0xe0, 0xbd, 0x1d, 0x3e, 0x7b, 0xac, 0x98, 0x3d, 
  0xec, 0xe3, 0x24, 0xbd, 0x4c, 0xb8, 0xb0, 0x3d, 0xc3, 0xac, 0x09, 0xbe, 
  0xd7, 0x92, 0xde, 0xbd, 0x04, 0x01, 0xd1, 0x3c, 0x64, 0x2b, 0xd0, 0x3d, 
  0xb0, 0x3e, 0xd3, 0xbd, 0xb2, 0x5a, 0xe6, 0x3d, 0xd5, 0x1f, 0xd4, 0xbd, 
  0x8c, 0xc0, 0x36, 0x3e, 0x23, 0x92, 0x0e, 0xbd, 0x6e, 0x31, 0xf5, 0xbb, 
  0xff, 0xdc, 0x98, 0xbc, 0xce, 0x2c, 0xa3, 0xbd, 0x35, 0xc9, 0xd5, 0x3c, 
  0x54, 0x37, 0x49, 0x3e, 0x67, 0xa6, 0xc6, 0xbc, 0x5b, 0x6f, 0x85, 0xbc, 
  0xf0, 0xb8, 0x26, 0xbe, 0xa7, 0xca, 0x58, 0xbd, 0x70, 0x41, 0xbe, 0x3d, 
  0xd7, 0x97, 0x35, 0x3e, 0x71, 0x04, 0x8a, 0x3c, 0x15, 0xf9, 0x02, 0xbe, 
  0xc0, 0xcf, 0xda, 0x3d, 0x7b, 0xb5, 0x2a, 0xbd, 0x14, 0xc4, 0xbc, 0x3d, 
  0x4b, 0x14, 0x1d, 0x3d, 0xe2, 0x94, 0xb5, 0xbd, 0xf6, 0xb7, 0x54, 0xbd, 
  0x85, 0x8f, 0xe8, 0x3d, 0xc3, 0x07, 0xfa, 0xbd, 0x4a, 0x33, 0x23, 0x3d, 
  0x4b, 0x96, 0x0c, 0x3d, 0x2c, 0xa2, 0x60, 0x3e, 0xee, 0xb7, 0x75, 0x3d, 
  0x1a, 0x27, 0x17, 0x3e, 0xa6, 0x90, 0xae, 0x3d, 0x21, 0x8f, 0x03, 0xbe, 
  0xe9, 0xe4, 0xc6, 0x3d, 0xd7, 0xce, 0x8c, 0xbd, 0xcc, 0x55, 0x6e, 0xbe, 
  0x77, 0x32, 0x9a, 0xbd, 0x8a, 0x41, 0x1b, 0xbe, 0xff, 0x9e, 0xde, 0xbd, 
  0xd5, 0x94, 0xd2, 0x3d, 0x88, 0xff, 0x11, 0xbd, 0x77, 0x18, 0x25, 0xbe, 
  0xea, 0xea, 0xee, 0x3c, 0x0a, 0x88, 0x54, 0x3d, 0x42, 0xea, 0xd0, 0xbd, 
  0x2a, 0xcd, 0x4c, 0xbe, 0x18, 0xf8, 0xb4, 0xbd, 0x93, 0xc6, 0xda, 0x3c, 
  0x62, 0xc8, 0x14, 0xbe, 0xd1, 0x68, 0x1f, 0xbc, 0xe1, 0x6d, 0x1b, 0x3e, 
  0x38, 0xb3, 0xe5, 0xbc, 0xd9, 0x22, 0xa6, 0xbd, 0x41, 0xe4, 0xdc, 0xbc, 
  0x04, 0xc5, 0x91, 0x3d, 0xcd, 0xbc, 0x4c, 0x3c, 0xf8, 0xe1, 0x98, 0xbd, 
  0x98, 0xf3, 0x23, 0xbd, 0x00, 0xf5, 0x84, 0x3d, 0x2a, 0xf6, 0xff, 0x3d, 
  0x04, 0xaa, 0x7c, 0x3d, 0x89, 0x7e, 0x07, 0xbd, 0xe3, 0x3d, 0x17, 0x3d, 
  0x5e, 0x52, 0x7a, 0xbd, 0x5d, 0x48, 0x00, 0x3e, 0xe0, 0x87, 0xef, 0x3d, 
  0xa2, 0x31, 0x96, 0xbb, 0x6a, 0x45, 0x02, 0x3e, 0xe8, 0x1f, 0xe6, 0x3c, 
  0xfa, 0x8b, 0x82, 0xbe, 0x1b, 0x16, 0x8c, 0x3d, 0xde, 0x9a, 0x0e, 0x3e, 
  0x4d, 0xd4, 0x03, 0xbe, 0xce, 0x9e, 0x2f, 0x3e, 0x45, 0xf4, 0x9b, 0xbd, 
  0x73, 0x50, 0x8f, 0xbe, 0x71, 0xaa, 0x82, 0xbd, 0x76, 0x29, 0x28, 0xbd, 
  0x96, 0x63, 0xb8, 0x3d, 0x2d, 0xab, 0xd6, 0xbd, 0x49, 0x83, 0x40, 0x3e, 
  0x9d, 0x17, 0x59, 0xbe, 0x64, 0x40, 0xac, 0x3c, 0x55, 0x77, 0xee, 0x3d, 
  0x69, 0x9e, 0x91, 0xbc, 0x9a, 0xc9, 0x04, 0x3e, 0xaa, 0xa3, 0x04, 0x3d, 
  0xe0, 0xd8, 0x88, 0xbe, 0x78, 0x3a, 0x88, 0x3d, 0x54, 0x21, 0xea, 0x3c, 
  0xa7, 0xd4, 0x93, 0x3d, 0xd8, 0x6d, 0x63, 0xbd, 0x2b, 0x94, 0x08, 0xbe, 
  0xe5, 0x72, 0x20, 0xbe, 0xbb, 0x38, 0x1d, 0xbe, 0xd1, 0x7c, 0x3f, 0x3e, 
  0x3e, 0xa3, 0xe1, 0xbd, 0xf7, 0x45, 0x22, 0x3e, 0xed, 0xa0, 0xed, 0xbc, 
  0xba, 0x09, 0xef, 0x3c, 0xda, 0xa8, 0x9b, 0x3d, 0xf3, 0xd0, 0xd6, 0x3d, 
  0x99, 0x40, 0xc6, 0x3d, 0x8d, 0xaa, 0xbe, 0xbd, 0x04, 0x41, 0xdb, 0x3c, 
  0x6d, 0x76, 0x00, 0x3e, 0x6a, 0xc4, 0xd1, 0x3d, 0xfd, 0xc7, 0xfc, 0xbd, 
  0x3c, 0x7b, 0x2f, 0xbe, 0x2d, 0x13, 0x36, 0x3d, 0xcd, 0xe9, 0xbf, 0x3c, 
  0x45, 0x66, 0x04, 0xbe, 0xdd, 0x1b, 0x02, 0xbe, 0x3c, 0xb0, 0x97, 0x3d, 
  0x18, 0xf9, 0x10, 0xbd, 0x39, 0x3f, 0x4d, 0xbd, 0x9a, 0x84, 0xbe, 0x3c, 
  0xea, 0x6e, 0x12, 0x3e, 0xda, 0x70, 0xd1, 0x3d, 0xc5, 0x9c, 0xe7, 0x3c, 
  0x4f, 0x9a, 0x16, 0x3d, 0xb6, 0x21, 0xcf, 0xbc, 0x63, 0x4c, 0xf5, 0xbd, 
  0xc0, 0x34, 0xf1, 0xbd, 0xa0, 0x28, 0x77, 0xbd, 0x1a, 0x24, 0x39, 0xbe, 
  0xbe, 0xbe, 0x87, 0xbd, 0x16, 0x5a, 0x32, 0xbe, 0x90, 0xa8, 0x20, 0x3e, 
  0x18, 0xb6, 0xa4, 0xbd, 0x83, 0x97, 0x12, 0x3d, 0x47, 0xa8, 0x10, 0xbe, 
  0x6c, 0xf2, 0x6d, 0x3d, 0x6f, 0x94, 0x12, 0x3d, 0x6c, 0x4e, 0xdb, 0x3d, 
  0x0c, 0x31, 0x16, 0x3d, 0x50, 0x03, 0xb3, 0x3d, 0x0b, 0x84, 0xa5, 0xbd, 
  0xa4, 0xcd, 0x27, 0x3d, 0x2d, 0xef, 0x2f, 0x3e, 0x3c, 0x9d, 0x15, 0x3e, 
  0x63, 0xe8, 0x49, 0xbe, 0xf0, 0xeb, 0xd3, 0xbd, 0x6c, 0xa2, 0x7c, 0x3d, 
  0x2a, 0xe8, 0x21, 0x3e, 0xb4, 0x58, 0x38, 0xbe, 0x8a, 0x2e, 0xc7, 0x3d, 
  0x78, 0x8a, 0x2f, 0xbc, 0x20, 0xa7, 0x11, 0xbe, 0x2b, 0x42, 0x5f, 0x3d, 
  0xf8, 0xd4, 0x35, 0xbc, 0x1b, 0x8a, 0x77, 0x3d, 0x23, 0xe3, 0x34, 0xbd, 
  0xc0, 0x83, 0xa6, 0x3c, 0x1e, 0x67, 0x8f, 0x3d, 0x4f, 0xc5, 0xaa, 0xbd, 
  0x0f, 0x16, 0x9f, 0x3e, 0x51, 0xae, 0x9d, 0x3d, 0xf6, 0x36, 0x2c, 0x3c, 
  0xe9, 0xbc, 0xd9, 0xbd, 0x6a, 0xb5, 0xe3, 0x3c, 0xd9, 0xb0, 0x87, 0xbd, 
  0x11, 0x44, 0xca, 0xbc, 0x93, 0x02, 0xce, 0xbb, 0x16, 0xa6, 0x9c, 0xbc, 
  0x71, 0xb7, 0x38, 0xbe, 0x82, 0xf5, 0x8c, 0xbd, 0x62, 0x1a, 0x78, 0x3b, 
  0x83, 0xc9, 0x23, 0xbc, 0x70, 0x68, 0x93, 0x3d, 0x7f, 0xd4, 0x95, 0xbc, 
  0xe9, 0x19, 0xa1, 0xbe, 0xe2, 0xf1, 0xc1, 0xbd, 0x52, 0x9a, 0xed, 0x3c, 
  0x7b, 0x6d, 0x82, 0x3d, 0x7a, 0x9d, 0xee, 0xbc, 0xa4, 0x1b, 0x15, 0x3e, 
  0xe8, 0x96, 0x1a, 0x3d, 0xe6, 0x98, 0x2c, 0x3e, 0xe1, 0xa3, 0x24, 0x3d, 
  0x32, 0x0f, 0x30, 0xbd, 0xa0, 0x28, 0x10, 0x3e, 0x06, 0x71, 0xdb, 0xbc, 
  0xdc, 0x5e, 0x7c, 0xbe, 0x52, 0xd3, 0xfd, 0xbc, 0x99, 0x26, 0x30, 0x3e, 
  0xd6, 0xc3, 0x6b, 0x3c, 0x8a, 0xd0, 0x8e, 0x3d, 0x68, 0x72, 0xa6, 0xbd, 
  0xb4, 0x58, 0x36, 0xbe, 0x11, 0x33, 0x71, 0x3d, 0x6f, 0x2d, 0x80, 0xbd, 
  0xef, 0x4e, 0x2f, 0x3e, 0xf8, 0x7f, 0x1a, 0xbc, 0xd1, 0x1a, 0x13, 0xba, 
  0xc5, 0x0a, 0x4c, 0xbe, 0x51, 0x87, 0xc5, 0xbd, 0xf5, 0x4a, 0xbb, 0x3d, 
  0xac, 0xcd, 0x4e, 0xbd, 0x87, 0x37, 0xbf, 0x3d, 0x67, 0x44, 0x6f, 0x3c, 
  0x00, 0x26, 0x92, 0xbd, 0x5d, 0x4f, 0x17, 0x3e, 0xe6, 0x90, 0xe7, 0xbd, 
  0x0e, 0x95, 0x59, 0x3d, 0xd9, 0xb3, 0x40, 0x3d, 0xf8, 0x32, 0x71, 0xbd, 
  0x9e, 0x0c, 0xab, 0x3d, 0xe5, 0x80, 0xd1, 0xbd, 0xb6, 0xc1, 0x21, 0x3c, 
  0xe1, 0xb1, 0x02, 0x3e, 0x8e, 0xb8, 0x5d, 0xbc, 0xeb, 0x63, 0x2b, 0xbd, 
  0x44, 0xa5, 0x46, 0xbd, 0x3d, 0x35, 0x6b, 0x3c, 0x32, 0x28, 0xe1, 0x3d, 
  0x9a, 0xc4, 0x41, 0x3e, 0x63, 0x28, 0xac, 0xbd, 0xe5, 0x1c, 0x3b, 0x3d, 
  0x40, 0x62, 0x0d, 0xbe, 0xe3, 0x8c, 0x64, 0xbd, 0xc7, 0x69, 0xdb, 0x3c, 
  0x99, 0x60, 0x35, 0xbd, 0x3a, 0x2d, 0x59, 0xbd, 0xfa, 0xbd, 0xa6, 0xbd, 
  0x89, 0x72, 0x2a, 0xbe, 0xa0, 0xc9, 0x04, 0xbe, 0xd6, 0x56, 0xb1, 0x3d, 
  0x8a, 0x66, 0x35, 0xbe, 0x2d, 0x93, 0x94, 0x3b, 0xbd, 0x82, 0xb4, 0xbb, 
  0x86, 0x1b, 0x17, 0x3e, 0x3e, 0x1d, 0x15, 0x3e, 0x5b, 0x04, 0x5f, 0x3d, 
  0xfd, 0xa8, 0x80, 0x3d, 0xdd, 0x0b, 0x33, 0xbd, 0xde, 0xb4, 0x01, 0x3e, 
  0x1f, 0xb9, 0x13, 0x3e, 0x3d, 0x1a, 0xde, 0x3d, 0x65, 0xf0, 0xa6, 0xbd, 
  0x45, 0x12, 0x21, 0xbe, 0xbc, 0x15, 0xd8, 0x3d, 0xa6, 0x05, 0x43, 0x3c, 
  0xdd, 0xf0, 0xbf, 0x3d, 0xdf, 0x70, 0xb9, 0x3d, 0x5c, 0x50, 0xeb, 0xbd, 
  0x88, 0x14, 0xc9, 0x3d, 0x5b, 0x72, 0xd4, 0xbb, 0x64, 0xbe, 0x0b, 0x3d, 
  0x88, 0x5c, 0x59, 0x3d, 0x22, 0xed, 0x04, 0x3d, 0xb0, 0x82, 0x85, 0xbe, 
  0xfb, 0x38, 0xc3, 0x3d, 0xb8, 0x44, 0xee, 0xbc, 0x7a, 0xb9, 0x29, 0x3e, 
  0x97, 0x9b, 0xbb, 0xbd, 0x84, 0xd7, 0x1e, 0xbe, 0x48, 0x3c, 0x50, 0x3d, 
  0x1a, 0x65, 0xd1, 0x3a, 0xc7, 0x97, 0x1b, 0x3e, 0xbc, 0x17, 0x20, 0x3e, 
  0x9e, 0xf3, 0x32, 0x3c, 0x3d, 0x19, 0x7c, 0xbd, 0x93, 0xf3, 0x85, 0x3d, 
  0x70, 0xf3, 0x85, 0x3c, 0xba, 0x1b, 0x0c, 0x3d, 0xe7, 0x8d, 0xa1, 0x3d, 
  0x76, 0x93, 0xff, 0xbc, 0xb0, 0x47, 0x21, 0x3e, 0x9a, 0x4c, 0x85, 0xbb, 
  0x74, 0xd3, 0xae, 0x3d, 0xb4, 0x51, 0xa3, 0xbd, 0x77, 0x61, 0x47, 0xbc, 
  0x64, 0xcf, 0xc7, 0xbd, 0xba, 0x5b, 0x57, 0xbd, 0x28, 0x1c, 0xb6, 0xbd, 
  0xc8, 0x6b, 0x47, 0x3e, 0x3d, 0xbb, 0x0a, 0x3e, 0x71, 0x3d, 0x65, 0x3d, 
  0x61, 0x86, 0x99, 0x3d, 0x3b, 0xfd, 0x43, 0x3e, 0xdc, 0x7b, 0xe3, 0x3d, 
  0xb3, 0x1f, 0x90, 0xbc, 0x24, 0x99, 0xa7, 0xbd, 0x94, 0xb7, 0x34, 0xbd, 
  0x84, 0x05, 0xf5, 0xbb, 0xee, 0xec, 0xc3, 0x3d, 0x4a, 0xfe, 0x9b, 0xbd, 
  0xce, 0x1f, 0xeb, 0x3c, 0xe1, 0xb0, 0x6c, 0xbd, 0xce, 0x38, 0x52, 0xbd, 
  0x05, 0xbe, 0x96, 0x3d, 0xad, 0x5d, 0x31, 0x3e, 0xaf, 0xd1, 0x69, 0x3d, 
  0xc8, 0x6b, 0x51, 0xbe, 0xd0, 0xf9, 0x28, 0x3e, 0x90, 0xe2, 0xd4, 0x3b, 
  0xf8, 0xdb, 0xae, 0xbd, 0x8e, 0x1f, 0xab, 0x3c, 0x24, 0x6f, 0x2d, 0x3d, 
  0xe3, 0x52, 0x4c, 0x3d, 0xf5, 0xf7, 0x44, 0x3e, 0xee, 0x4b, 0xc1, 0xbc, 
  0x40, 0x59, 0xba, 0x3c, 0x12, 0xcd, 0xd3, 0x3c, 0x53, 0xcc, 0x45, 0xbe, 
  0xed, 0x69, 0x3b, 0xbe, 0xc1, 0xb3, 0xfe, 0xbd, 0x1c, 0xfb, 0x7e, 0xbd, 
  0xe8, 0x5f, 0xde, 0xbd, 0x86, 0x74, 0xe4, 0x3d, 0x80, 0xc2, 0x06, 0xbd, 
  0xbf, 0xcc, 0xf4, 0x3d, 0x23, 0x53, 0x4f, 0x3d, 0x75, 0x4b, 0x56, 0x3d, 
  0x4d, 0x92, 0x1b, 0x3d, 0x7e, 0x97, 0x46, 0xbd, 0x31, 0x4f, 0xad, 0x3d, 
  0x4d, 0x8c, 0xa5, 0x3d, 0xa9, 0xcc, 0x19, 0xbe, 0x45, 0x93, 0x8a, 0x3c, 
  0x18, 0xf4, 0xea, 0x3d, 0xf5, 0xc2, 0xb8, 0x3c, 0x74, 0xaa, 0x0e, 0xbe, 
  0xbc, 0x33, 0xa9, 0xbd, 0x17, 0x69, 0x06, 0x3d, 0x9a, 0x06, 0xbb, 0x3d, 
  0x08, 0xeb, 0x71, 0x3e, 0xbe, 0x73, 0xa5, 0xbd, 0x6a, 0x09, 0x80, 0xbc, 
  0xdd, 0x6a, 0xc6, 0xbd, 0xa7, 0xbb, 0x9a, 0x3d, 0xc4, 0xfe, 0x14, 0x3c, 
  0x40, 0x0b, 0x9f, 0xbc, 0xb8, 0xce, 0x62, 0xbd, 0x56, 0x11, 0xae, 0x3d, 
  0x97, 0x5b, 0x51, 0x3e, 0xf9, 0xa2, 0xc5, 0xbd, 0x44, 0xc2, 0xe7, 0xbd, 
  0x14, 0x11, 0xdf, 0x3c, 0x4f, 0x95, 0xe5, 0x3d, 0x29, 0x23, 0x13, 0xbd, 
  0xc8, 0xa9, 0x32, 0x3e, 0xbd, 0x13, 0x11, 0x3d, 0x43, 0xf9, 0xf4, 0x3d, 
  0xa9, 0x81, 0xee, 0xbd, 0xec, 0xcf, 0x67, 0x3d, 0xb1, 0xb2, 0x69, 0xbc, 
  0xcf, 0x8c, 0x5c, 0x3e, 0x27, 0xb0, 0x15, 0x3c, 0x09, 0xdb, 0x1e, 0x3d, 
  0x90, 0x48, 0xd7, 0xbd, 0x9d, 0xcc, 0xce, 0xbc, 0xd0, 0x23, 0x01, 0x3c, 
  0xf5, 0x4a, 0xab, 0xbd, 0x6e, 0x22, 0xc6, 0xbd, 0x5e, 0x72, 0x05, 0xbe, 
  0x26, 0x1f, 0x8c, 0xbd, 0xaf, 0xe9, 0x2e, 0xbd, 0x30, 0x84, 0x23, 0x3e, 
  0x88, 0xdd, 0xbe, 0xbc, 0x71, 0x97, 0xbb, 0x3d, 0x95, 0x4a, 0x81, 0x3d, 
  0xc0, 0xab, 0x5a, 0xbd, 0x5a, 0x69, 0x0b, 0xbd, 0xd6, 0xac, 0xbc, 0xbc, 
  0x41, 0x55, 0x58, 0x3e, 0x85, 0x84, 0x23, 0xbe, 0xd0, 0xb5, 0x8f, 0xbe, 
  0x0f, 0x78, 0xa0, 0xbc, 0xea, 0x11, 0xd7, 0x3d, 0x0f, 0x50, 0xc9, 0xbd, 
  0x43, 0x55, 0xd2, 0xbc, 0x83, 0xaf, 0x33, 0x3d, 0x1f, 0x1e, 0x03, 0x3e, 
  0xf3, 0xc4, 0xe0, 0x3d, 0x58, 0x89, 0x55, 0x3d, 0x85, 0xa1, 0x2d, 0x3e, 
  0x62, 0xc8, 0x2d, 0xbe, 0xcd, 0x51, 0x34, 0x3e, 0x5c, 0xc9, 0x89, 0xbd, 
  0x15, 0x5b, 0x5b, 0xbd, 0x02, 0xac, 0x71, 0xbc, 0xdd, 0xa2, 0xac, 0xbd, 
  0x59, 0x0c, 0xf6, 0xbc, 0xb1, 0x88, 0xd6, 0xbd, 0x99, 0x11, 0x2f, 0x3e, 
  0x18, 0x1c, 0x03, 0x3e, 0x91, 0x1b, 0x11, 0xbd, 0x54, 0x35, 0xc2, 0x3c, 
  0x05, 0xfc, 0x7e, 0x3c, 0x71, 0x11, 0x4b, 0x3d, 0x8c, 0x44, 0x0b, 0xbe, 
  0x98, 0x63, 0x73, 0x3e, 0x5e, 0xb9, 0x57, 0xbd, 0x8f, 0xe2, 0x33, 0xbb, 
  0x3e, 0xc9, 0xed, 0xbd, 0xdf, 0xfe, 0x76, 0x3d, 0x4e, 0xf7, 0xa5, 0x3d, 
  0x68, 0x21, 0x4f, 0xbc, 0xc3, 0x59, 0xc6, 0xbc, 0xe3, 0xb2, 0x7a, 0xbd, 
  0xfc, 0xd3, 0x73, 0xbd, 0x46, 0x91, 0x64, 0x3d, 0x73, 0x78, 0x89, 0x3b, 
  0x3b, 0x22, 0x06, 0xbe, 0x24, 0x2c, 0x6d, 0x3d, 0x03, 0x72, 0xb0, 0xbd, 
  0x5b, 0xbc, 0x34, 0x3e, 0x04, 0x8e, 0xda, 0x3c, 0xf6, 0x27, 0x1d, 0x3c, 
  0xc6, 0x90, 0x8d, 0xbd, 0xb6, 0x70, 0xea, 0x3d, 0xae, 0xff, 0x90, 0x3d, 
  0xd2, 0x71, 0x51, 0x3d, 0x56, 0xc4, 0xfc, 0xbd, 0x6e, 0x2b, 0x06, 0xbd, 
  0x4e, 0x96, 0xb1, 0xbd, 0x2d, 0x31, 0x77, 0x3c, 0x17, 0x5c, 0xa7, 0xbc, 
  0x8b, 0xc2, 0x91, 0xbd, 0x95, 0xca, 0x73, 0x3c, 0xa4, 0x23, 0x47, 0x3d, 
  0x4f, 0xc8, 0x54, 0xbe, 0x1d, 0xb1, 0x88, 0xbd, 0x4d, 0x4d, 0x3f, 0x3e, 
  0xc6, 0x07, 0xe9, 0x3d, 0xb8, 0x16, 0xd0, 0x3d, 0xda, 0x80, 0xa0, 0x3d, 
  0xa4, 0x0a, 0x66, 0x3d, 0xc8, 0xbc, 0x23, 0xbe, 0x5f, 0xb2, 0x15, 0xbe, 
  0x4b, 0xf5, 0x8b, 0xbc, 0x18, 0x50, 0xcc, 0xbc, 0x11, 0xb7, 0x94, 0xbd, 
  0x04, 0x98, 0xc7, 0x3d, 0xde, 0x43, 0x83, 0x3d, 0x32, 0xa7, 0x01, 0xbe, 
  0xf8, 0xe6, 0x54, 0xbd, 0xd3, 0x41, 0xb1, 0xba, 0x23, 0xac, 0x83, 0xbc, 
  0x33, 0xf8, 0x27, 0xbe, 0xae, 0xa1, 0xd9, 0xbc, 0x25, 0x4f, 0xfe, 0x3d, 
  0xec, 0x94, 0x8f, 0x3d, 0xf3, 0x5e, 0x02, 0x3e, 0x87, 0x51, 0x06, 0x3e, 
  0x01, 0x39, 0x27, 0xbe, 0xd9, 0x4a, 0x4f, 0x3c, 0x7a, 0xc4, 0x18, 0xbd, 
  0x8b, 0x85, 0x73, 0x3c, 0x57, 0x51, 0x99, 0xbd, 0xcc, 0x13, 0x8f, 0x3d, 
  0xf7, 0xdb, 0x0c, 0xbe, 0x59, 0x7d, 0xf9, 0x3d, 0x2b, 0xad, 0x8a, 0x3e, 
  0x8d, 0x2d, 0x54, 0x3d, 0x59, 0xe9, 0x06, 0x3c, 0x2a, 0x14, 0x63, 0xbd, 
  0x08, 0x52, 0xcb, 0xbb, 0x08, 0x00, 0x52, 0xbe, 0x0e, 0x4c, 0x95, 0x3d, 
  0x57, 0x90, 0x1d, 0x3e, 0x66, 0x71, 0x7f, 0xbc, 0xa1, 0x97, 0xb7, 0x3d, 
  0x2a, 0x52, 0xa7, 0x3d, 0x57, 0x2a, 0x07, 0xbd, 0x19, 0x81, 0x7c, 0xbd, 
  0x5f, 0x7b, 0x2e, 0x3e, 0x8f, 0x41, 0xea, 0xbc, 0x0d, 0xc6, 0x40, 0xbd, 
  0x70, 0x04, 0x10, 0x3c, 0xeb, 0x79, 0x99, 0xbd, 0x2c, 0x62, 0x03, 0x3e, 
  0x71, 0x49, 0x98, 0xbc, 0x09, 0x18, 0x84, 0xbd, 0x8e, 0x84, 0xf0, 0x3d, 
  0x20, 0xd2, 0xb5, 0xbd, 0x01, 0x54, 0x3f, 0xbd, 0xfa, 0xcb, 0x70, 0x39, 
  0x29, 0x86, 0x40, 0x3e, 0xa9, 0xd2, 0x42, 0x3b, 0x26, 0x21, 0x0a, 0xbe, 
  0xac, 0x85, 0x85, 0x3d, 0xf5, 0xc2, 0x07, 0x3e, 0x27, 0x3e, 0xd6, 0xbd, 
  0x86, 0xc9, 0x17, 0x3e, 0x0b, 0xe9, 0xce, 0xbd, 0x8a, 0x32, 0xe2, 0xbc, 
  0x55, 0xb7, 0x6b, 0x3c, 0x18, 0x5d, 0x80, 0xbd, 0x5a, 0x60, 0x97, 0xbd, 
  0x33, 0xb9, 0xc4, 0x3c, 0x5f, 0xa3, 0xaf, 0x3d, 0x75, 0xb1, 0x21, 0x3e, 
  0x6b, 0x76, 0x1e, 0xbe, 0x05, 0x32, 0x32, 0x3c, 0x36, 0x04, 0x1e, 0x3d, 
  0xb1, 0xf2, 0xd6, 0x3d, 0xd8, 0x33, 0x44, 0xbd, 0x27, 0x1d, 0xfa, 0xbd, 
  0x6f, 0xbf, 0x6b, 0xbd, 0xae, 0xb9, 0xa9, 0x3d, 0xeb, 0x95, 0x0e, 0xbe, 
  0x10, 0x78, 0xf9, 0x3d, 0x41, 0xa7, 0xd3, 0x3d, 0xa6, 0x39, 0x1f, 0x3e, 
  0x93, 0xd0, 0x6d, 0xbc, 0xca, 0x55, 0xec, 0xbd, 0x2a, 0x36, 0x4f, 0xbd, 
  0x11, 0x27, 0xc4, 0x3d, 0x0b, 0x16, 0x20, 0xbe, 0xe1, 0xbe, 0x7b, 0x3d, 
  0x5d, 0x8f, 0x10, 0x3d, 0x68, 0x53, 0xb1, 0xbc, 0x4a, 0x35, 0x10, 0x3e, 
  0x8c, 0x2d, 0x25, 0x3e, 0xa3, 0x2b, 0xee, 0x3d, 0x77, 0x79, 0xf0, 0xbc, 
  0xd0, 0x28, 0x05, 0xbe, 0x08, 0xc8, 0xad, 0xbd, 0xa7, 0xe3, 0x17, 0x3d, 
  0xad, 0x32, 0xae, 0x3d, 0xfb, 0x9b, 0xf2, 0x3b, 0x4f, 0x92, 0x08, 0x3e, 
  0x65, 0xf4, 0x30, 0xbd, 0x6a, 0xcb, 0x0d, 0xbe, 0x92, 0x3a, 0x56, 0xbd, 
  0xd1, 0x78, 0xf2, 0x3d, 0x65, 0x79, 0xc3, 0xbb, 0xe8, 0x0a, 0x4b, 0x3d, 
  0x14, 0x35, 0x81, 0x3d, 0xc7, 0x06, 0xf5, 0x3d, 0xeb, 0x87, 0x4c, 0x3d, 
  0xcc, 0x88, 0x8b, 0x3d, 0xd9, 0xe5, 0x02, 0xbb, 0xcf, 0x23, 0x65, 0x3d, 
  0xd8, 0x55, 0x08, 0xbe, 0x27, 0xb0, 0x4e, 0xbc, 0xdd, 0x0f, 0x12, 0xbd, 
  0xa2, 0x83, 0x49, 0x3e, 0xbb, 0x59, 0xa4, 0x3c, 0x3c, 0x0b, 0x96, 0xbb, 
  0xb6, 0x1c, 0xd7, 0x3d, 0xc0, 0x9c, 0x2c, 0x3c, 0xc2, 0x1e, 0x79, 0x3d, 
  0x6d, 0x33, 0xec, 0x3d, 0x9e, 0xdb, 0xdc, 0xbd, 0x0a, 0x51, 0x57, 0xbe, 
  0x52, 0xcc, 0xb5, 0x3d, 0xbc, 0x88, 0xc6, 0xbd, 0x49, 0x77, 0x42, 0xbd, 
  0xf6, 0x5a, 0x25, 0xbe, 0xef, 0x8b, 0x03, 0xbc, 0x79, 0xd3, 0x90, 0x3d, 
  0x25, 0xb8, 0xd4, 0xbd, 0x94, 0x61, 0x4a, 0x3e, 0xf3, 0x8e, 0x1c, 0x3e, 
  0x44, 0x81, 0xa5, 0x3d, 0xaa, 0x1c, 0x89, 0xbd, 0xcd, 0x74, 0x2c, 0xbe, 
  0xff, 0x5c, 0xec, 0xbd, 0xed, 0xf1, 0x1c, 0x3e, 0xd9, 0xd5, 0xe5, 0x3c, 
  0x9c, 0x0e, 0x6c, 0xbb, 0x1b, 0x52, 0x5e, 0x3d, 0x9c, 0xcb, 0xde, 0xbd, 
  0x6c, 0x6e, 0xd5, 0x3d, 0xa9, 0x2b, 0x97, 0x3d, 0x06, 0xeb, 0x82, 0xbd, 
  0x59, 0x22, 0x29, 0xbe, 0xd1, 0x70, 0x82, 0x3d, 0x8f, 0x41, 0x8b, 0x3c, 
  0x03, 0x35, 0x11, 0x3e, 0xc4, 0x07, 0xe9, 0xbd, 0x3a, 0xbf, 0x3b, 0xbe, 
  0x92, 0xb9, 0x40, 0xbd, 0x3d, 0xed, 0xf3, 0xbc, 0x73, 0x5c, 0x92, 0x3c, 
  0xa9, 0x00, 0xea, 0xbd, 0xa2, 0x5d, 0x72, 0xbd, 0x7c, 0x99, 0x24, 0xbe, 
  0xd0, 0xb5, 0x7f, 0x3d, 0xe0, 0x04, 0x2c, 0x3e, 0x7f, 0xa0, 0x29, 0xbb, 
  0x55, 0xbb, 0xa5, 0xbd, 0x2a, 0x18, 0x0c, 0x3d, 0x0b, 0xae, 0x79, 0x3d, 
  0x14, 0xb9, 0x8b, 0xbc, 0x96, 0x7d, 0x19, 0xbe, 0xd6, 0x4a, 0x2c, 0x3d, 
  0xac, 0xa3, 0xbf, 0xbd, 0x82, 0x69, 0x10, 0xbe, 0xdb, 0xd6, 0x44, 0x3d, 
  0xc2, 0x72, 0x78, 0x3d, 0x2f, 0x25, 0x35, 0x3c, 0x4a, 0x28, 0x04, 0x3e, 
  0x98, 0xf6, 0xce, 0x3d, 0xff, 0x0d, 0xb8, 0x3d, 0x13, 0x5c, 0xd7, 0xbd, 
  0x2d, 0x64, 0x63, 0x3e, 0xd2, 0x09, 0x54, 0x3d, 0x81, 0xbe, 0x18, 0x3d, 
  0x3f, 0x7a, 0x0f, 0xbe, 0x56, 0xd6, 0x62, 0xbd, 0x96, 0x92, 0x88, 0x3c, 
  0xc7, 0x5b, 0x1d, 0x3e, 0x37, 0x87, 0x5b, 0x3d, 0x00, 0x82, 0xbe, 0x3d, 
  0xeb, 0xd0, 0xe0, 0xbc, 0x70, 0x54, 0x4c, 0xbe, 0x40, 0xa2, 0x61, 0xbe, 
  0x1b, 0x13, 0x14, 0x3e, 0x08, 0x39, 0xa1, 0x3d, 0x0e, 0x49, 0x7b, 0x3e, 
  0xb1, 0xe2, 0xbc, 0x3b, 0xfa, 0x5f, 0xda, 0x3d, 0x53, 0x65, 0xbc, 0x3c, 
  0x16, 0x2a, 0x0d, 0xbd, 0x12, 0xac, 0x2f, 0x3c, 0x7e, 0xc1, 0xf4, 0xbc, 
  0x47, 0x25, 0xfa, 0xbd, 0x3d, 0x23, 0x18, 0x3e, 0x8b, 0xd5, 0x81, 0xbb, 
  0x45, 0x10, 0x92, 0x3d, 0x82, 0x97, 0x62, 0xbc, 0x06, 0x49, 0x7d, 0xbd, 
  0xdc, 0x93, 0xb1, 0xbc, 0xb1, 0xde, 0x3f, 0xbd, 0x74, 0x1c, 0x8a, 0x3d, 
  0xb8, 0x88, 0x29, 0x3d, 0x79, 0xfe, 0x44, 0x3d, 0x44, 0xaf, 0x1d, 0x3e, 
  0xdb, 0x82, 0x0a, 0xbb, 0xe3, 0xc5, 0x8e, 0xbd, 0x13, 0x86, 0x4c, 0x3c, 
  0x15, 0x41, 0x62, 0x3e, 0x84, 0x0c, 0x0f, 0xbc, 0xbc, 0x48, 0xfe, 0xbd, 
  0xe5, 0xe3, 0xeb, 0xbd, 0xe2, 0x64, 0x91, 0x3c, 0xc4, 0x07, 0x34, 0xbe, 
  0xeb, 0x5d, 0xec, 0x3c, 0xa7, 0x39, 0x0f, 0x3c, 0x23, 0xfb, 0x88, 0xbd, 
  0xcf, 0x44, 0xc4, 0x3d, 0xdc, 0x02, 0x3b, 0xbe, 0x7a, 0x84, 0xc2, 0xbd, 
  0xb6, 0xd0, 0xb2, 0xbd, 0xe9, 0xf0, 0x94, 0xbd, 0xb1, 0x53, 0x60, 0xbd, 
  0x52, 0xfe, 0x69, 0x3e, 0x56, 0xfd, 0xb1, 0x3d, 0x9b, 0xa8, 0x92, 0xbc, 
  0x3b, 0x6d, 0x18, 0x3b, 0x56, 0x8d, 0xc4, 0xbd, 0x03, 0x4a, 0xcb, 0x3d, 
  0x6e, 0x07, 0x52, 0x3d, 0x98, 0x6b, 0x81, 0x3d, 0xd0, 0xb8, 0xfe, 0xbd, 
  0x5a, 0x0c, 0xc4, 0x3d, 0x13, 0xfc, 0xaf, 0xbd, 0x17, 0x98, 0x45, 0x3e, 
  0xfc, 0x5a, 0x19, 0xbd, 0xba, 0x43, 0xfd, 0x3d, 0x3f, 0x86, 0x18, 0xbe, 
  0xd5, 0xd2, 0xe9, 0x3d, 0x11, 0x38, 0xf1, 0xbc, 0x20, 0x0b, 0xef, 0xbd, 
  0xac, 0x4a, 0x2e, 0x3e, 0xfd, 0xbb, 0xc3, 0x3d, 0x2f, 0xab, 0xba, 0x3d, 
  0xd0, 0xe1, 0x49, 0xbd, 0x9f, 0x22, 0x69, 0xbd, 0xf9, 0x3a, 0xe9, 0x3c, 
  0x10, 0x69, 0x8e, 0xbd, 0x3f, 0xbb, 0x33, 0x3c, 0xb9, 0x26, 0xb5, 0x3d, 
  0x23, 0x2b, 0x16, 0x3e, 0xbe, 0x39, 0xc3, 0x3d, 0x26, 0x03, 0x0c, 0xbd, 
  0xf7, 0x60, 0x45, 0xbe, 0x1d, 0x2c, 0xef, 0xbd, 0xbc, 0xad, 0xfa, 0xbd, 
  0x8f, 0x7e, 0xad, 0xbd, 0x3c, 0x48, 0xe1, 0xbc, 0xf8, 0x45, 0xe0, 0x3d, 
  0x90, 0x96, 0x71, 0xbe, 0x5b, 0xf4, 0x9c, 0xbd, 0x02, 0x69, 0xdf, 0x3c, 
  0xed, 0x06, 0xee, 0xbc, 0x35, 0x10, 0x11, 0x3e, 0x03, 0x9b, 0x10, 0xbe, 
  0xd6, 0x6b, 0xde, 0xbd, 0xab, 0x7e, 0x32, 0x3e, 0x46, 0x7c, 0x31, 0x3e, 
  0x0a, 0x8e, 0xaa, 0x3d, 0x9e, 0x00, 0xc1, 0x3c, 0xa9, 0x08, 0x97, 0x3d, 
  0x57, 0x20, 0xba, 0xbd, 0x43, 0xc4, 0x84, 0xbd, 0x73, 0x47, 0x08, 0xba, 
  0x85, 0xc0, 0x35, 0x3d, 0xad, 0x68, 0x76, 0xbd, 0x2b, 0x9f, 0x19, 0xbd, 
  0xb3, 0xc4, 0x32, 0xbe, 0xcf, 0xd2, 0xa9, 0x3b, 0x07, 0xd0, 0x95, 0xbd, 
  0x16, 0xa2, 0x26, 0xbd, 0x4c, 0xcb, 0x12, 0x3e, 0x71, 0xc1, 0x9e, 0x3d, 
  0x84, 0x7e, 0xe8, 0xbd, 0x51, 0x5c, 0x84, 0xbd, 0xa4, 0x11, 0xe0, 0x3d, 
  0xa9, 0xe8, 0xb3, 0xbb, 0x90, 0x50, 0xe0, 0xbd, 0x07, 0xf5, 0x09, 0x3e, 
  0x37, 0x1b, 0x02, 0xbe, 0x36, 0xa1, 0x59, 0x3d, 0xd4, 0xff, 0x1c, 0x3d, 
  0x01, 0x60, 0x16, 0x3b, 0xe5, 0x89, 0x8c, 0x3d, 0xb5, 0x06, 0x25, 0xbd, 
  0x7b, 0xa1, 0x80, 0x3d, 0xc9, 0x28, 0x33, 0x3e, 0xde, 0x22, 0xae, 0x3d, 
  0x86, 0xf5, 0x13, 0x3e, 0x4a, 0x8b, 0xa2, 0x3d, 0xc0, 0xee, 0x46, 0xbd, 
  0x1d, 0x37, 0x4f, 0xbe, 0x9a, 0xfe, 0xff, 0xff, 0x04, 0x00, 0x00, 0x00, 
  0x0c, 0x00, 0x00, 0x00, 0xff, 0xff, 0xff, 0xff, 0xc4, 0x00, 0x00, 0x00, 
  0x20, 0x00, 0x00, 0x00, 0xb2, 0xfe, 0xff, 0xff, 0x04, 0x00, 0x00, 0x00, 
  0x10, 0x00, 0x00, 0x00, 0xaa, 0x8e, 0x62, 0xbe, 0x93, 0xac, 0xd2, 0x3c, 
  0x3b, 0xac, 0x15, 0x3e, 0x7c, 0x8d, 0x14, 0x3d, 0xce, 0xfe, 0xff, 0xff, 
  0x04, 0x00, 0x00, 0x00, 0x80, 0x00, 0x00, 0x00, 0x0e, 0xdb, 0xfc, 0xbd, 
  0xa6, 0xd0, 0x01, 0x3c, 0x9e, 0xbd, 0x40, 0xbd, 0x5e, 0xdb, 0x6a, 0xbd, 
  0x16, 0x00, 0xad, 0xbc, 0x46, 0xb9, 0x48, 0xbd, 0x06, 0xac, 0x0d, 0xbd, 
  0xa4, 0x52, 0x2d, 0x3d, 0x42, 0x69, 0xf5, 0xbd, 0x3f, 0xd4, 0x4c, 0x3d, 
  0x26, 0x2e, 0xc1, 0xbc, 0x46, 0x2a, 0x71, 0xbd, 0xb4, 0x7f, 0x49, 0xbc, 
  0xe9, 0x2e, 0xc2, 0x3c, 0xcf, 0xa7, 0xaf, 0x3c, 0x05, 0x3e, 0x3e, 0xbe, 
  0xd9, 0x17, 0x92, 0x3d, 0x6c, 0x28, 0xaf, 0x3d, 0xd0, 0xca, 0x6d, 0x3e, 
  0xb9, 0x60, 0xdb, 0xbd, 0xd5, 0xd9, 0x19, 0x3e, 0x28, 0x75, 0x14, 0x3d, 
  0x5f, 0x6c, 0x0e, 0x3d, 0x6d, 0x9b, 0xc5, 0xbd, 0x74, 0xe2, 0xa3, 0xbd, 
  0x29, 0xb9, 0x83, 0xbd, 0xaa, 0xaa, 0x75, 0x3d, 0x12, 0x73, 0xaa, 0xbd, 
  0x40, 0xa6, 0x0e, 0xbd, 0x1d, 0x36, 0xf8, 0xbd, 0x69, 0x4e, 0x71, 0xbc, 
  0x41, 0x4c, 0xef, 0x3c, 0x88, 0xf4, 0xff, 0xff, 0x8c, 0xf4, 0xff, 0xff, 
  0x0f, 0x00, 0x00, 0x00, 0x4d, 0x4c, 0x49, 0x52, 0x20, 0x43, 0x6f, 0x6e, 
  0x76, 0x65, 0x72, 0x74, 0x65, 0x64, 0x2e, 0x00, 0x01, 0x00, 0x00, 0x00, 
  0x14, 0x00, 0x00, 0x00, 0x00, 0x00, 0x0e, 0x00, 0x18, 0x00, 0x14, 0x00, 
  0x10, 0x00, 0x0c, 0x00, 0x08, 0x00, 0x04, 0x00, 0x0e, 0x00, 0x00, 0x00, 
  0x14, 0x00, 0x00, 0x00, 0x1c, 0x00, 0x00, 0x00, 0x14, 0x02, 0x00, 0x00, 
  0x18, 0x02, 0x00, 0x00, 0x1c, 0x02, 0x00, 0x00, 0x04, 0x00, 0x00, 0x00, 
  0x6d, 0x61, 0x69, 0x6e, 0x00, 0x00, 0x00, 0x00, 0x08, 0x00, 0x00, 0x00, 
  0xcc, 0x01, 0x00, 0x00, 0x68, 0x01, 0x00, 0x00, 0x24, 0x01, 0x00, 0x00, 
  0xf0, 0x00, 0x00, 0x00, 0xc8, 0x00, 0x00, 0x00, 0x88, 0x00, 0x00, 0x00, 
  0x50, 0x00, 0x00, 0x00, 0x14, 0x00, 0x00, 0x00, 0x00, 0x00, 0x0e, 0x00, 
  0x1a, 0x00, 0x14, 0x00, 0x10, 0x00, 0x0c, 0x00, 0x0b, 0x00, 0x04, 0x00, 
  0x0e, 0x00, 0x00, 0x00, 0x1c, 0x00, 0x00, 0x00, 0x00, 0x00, 0x00, 0x09, 
  0x1c, 0x00, 0x00, 0x00, 0x20, 0x00, 0x00, 0x00, 0x07, 0x00, 0x00, 0x00, 
  0x00, 0x00, 0x06, 0x00, 0x08, 0x00, 0x04, 0x00, 0x06, 0x00, 0x00, 0x00, 
  0x00, 0x00, 0x80, 0x3f, 0x01, 0x00, 0x00, 0x00, 0x11, 0x00, 0x00, 0x00, 
  0x01, 0x00, 0x00, 0x00, 0x10, 0x00, 0x00, 0x00, 0x0a, 0xff, 0xff, 0xff, 
  0x14, 0x00, 0x00, 0x00, 0x00, 0x00, 0x00, 0x08, 0x10, 0x00, 0x00, 0x00, 
  0x14, 0x00, 0x00, 0x00, 0x06, 0x00, 0x00, 0x00, 0x64, 0xf5, 0xff, 0xff, 
  0x01, 0x00, 0x00, 0x00, 0x10, 0x00, 0x00, 0x00, 0x03, 0x00, 0x00, 0x00, 
  0x0f, 0x00, 0x00, 0x00, 0x05, 0x00, 0x00, 0x00, 0x02, 0x00, 0x00, 0x00, 
  0x3e, 0xff, 0xff, 0xff, 0x14, 0x00, 0x00, 0x00, 0x00, 0x00, 0x00, 0x1b, 
  0x10, 0x00, 0x00, 0x00, 0x14, 0x00, 0x00, 0x00, 0x05, 0x00, 0x00, 0x00, 
  0x98, 0xf5, 0xff, 0xff, 0x01, 0x00, 0x00, 0x00, 0x0f, 0x00, 0x00, 0x00, 
  0x02, 0x00, 0x00, 0x00, 0x0e, 0x00, 0x00, 0x00, 0x08, 0x00, 0x00, 0x00, 
  0x00, 0x00, 0x0a, 0x00, 0x10, 0x00, 0x0c, 0x00, 0x08, 0x00, 0x04, 0x00, 
  0x0a, 0x00, 0x00, 0x00, 0x0c, 0x00, 0x00, 0x00, 0x10, 0x00, 0x00, 0x00, 
  0x04, 0x00, 0x00, 0x00, 0x01, 0x00, 0x00, 0x00, 0x0e, 0x00, 0x00, 0x00, 
  0x02, 0x00, 0x00, 0x00, 0x0d, 0x00, 0x00, 0x00, 0x03, 0x00, 0x00, 0x00, 
  0x9e, 0xff, 0xff, 0xff, 0x14, 0x00, 0x00, 0x00, 0x00, 0x00, 0x00, 0x0b, 
  0x10, 0x00, 0x00, 0x00, 0x14, 0x00, 0x00, 0x00, 0x03, 0x00, 0x00, 0x00, 
  0xf8, 0xf5, 0xff, 0xff, 0x01, 0x00, 0x00, 0x00, 0x0d, 0x00, 0x00, 0x00, 
  0x02, 0x00, 0x00, 0x00, 0x0c, 0x00, 0x00, 0x00, 0x06, 0x00, 0x00, 0x00, 
  0xce, 0xff, 0xff, 0xff, 0x14, 0x00, 0x00, 0x00, 0x00, 0x00, 0x00, 0x15, 
  0x10, 0x00, 0x00, 0x00, 0x14, 0x00, 0x00, 0x00, 0x02, 0x00, 0x00, 0x00, 
  0x28, 0xf6, 0xff, 0xff, 0x01, 0x00, 0x00, 0x00, 0x0c, 0x00, 0x00, 0x00, 
  0x02, 0x00, 0x00, 0x00, 0x0b, 0x00, 0x00, 0x00, 0x07, 0x00, 0x00, 0x00, 
  0x00, 0x00, 0x0e, 0x00, 0x18, 0x00, 0x14, 0x00, 0x10, 0x00, 0x0c, 0x00, 
  0x0b, 0x00, 0x04, 0x00, 0x0e, 0x00, 0x00, 0x00, 0x20, 0x00, 0x00, 0x00, 
  0x00, 0x00, 0x00, 0x01, 0x2c, 0x00, 0x00, 0x00, 0x30, 0x00, 0x00, 0x00, 
  0x01, 0x00, 0x00, 0x00, 0x0c, 0x00, 0x14, 0x00, 0x13, 0x00, 0x0c, 0x00, 
  0x08, 0x00, 0x07, 0x00, 0x0c, 0x00, 0x00, 0x00, 0x00, 0x00, 0x00, 0x01, 
  0x01, 0x00, 0x00, 0x00, 0x01, 0x00, 0x00, 0x00, 0x00, 0x00, 0x00, 0x01, 
  0x01, 0x00, 0x00, 0x00, 0x0b, 0x00, 0x00, 0x00, 0x03, 0x00, 0x00, 0x00, 
  0x0a, 0x00, 0x00, 0x00, 0x04, 0x00, 0x00, 0x00, 0x01, 0x00, 0x00, 0x00, 
  0x00, 0x00, 0x0e, 0x00, 0x14, 0x00, 0x00, 0x00, 0x10, 0x00, 0x0c, 0x00, 
  0x0b, 0x00, 0x04, 0x00, 0x0e, 0x00, 0x00, 0x00, 0x10, 0x00, 0x00, 0x00, 
  0x00, 0x00, 0x00, 0x34, 0x0c, 0x00, 0x00, 0x00, 0x10, 0x00, 0x00, 0x00, 
  0xc4, 0xf6, 0xff, 0xff, 0x01, 0x00, 0x00, 0x00, 0x0a, 0x00, 0x00, 0x00, 
  0x02, 0x00, 0x00, 0x00, 0x00, 0x00, 0x00, 0x00, 0x09, 0x00, 0x00, 0x00, 
  0x01, 0x00, 0x00, 0x00, 0x11, 0x00, 0x00, 0x00, 0x01, 0x00, 0x00, 0x00, 
  0x00, 0x00, 0x00, 0x00, 0x12, 0x00, 0x00, 0x00, 0x58, 0x08, 0x00, 0x00, 
  0x04, 0x08, 0x00, 0x00, 0xb0, 0x07, 0x00, 0x00, 0x70, 0x07, 0x00, 0x00, 
  0x10, 0x07, 0x00, 0x00, 0xd0, 0x06, 0x00, 0x00, 0x94, 0x06, 0x00, 0x00, 
  0x58, 0x06, 0x00, 0x00, 0x1c, 0x06, 0x00, 0x00, 0xbc, 0x05, 0x00, 0x00, 
  0x3c, 0x05, 0x00, 0x00, 0x64, 0x04, 0x00, 0x00, 0x7c, 0x03, 0x00, 0x00, 
  0x60, 0x02, 0x00, 0x00, 0x4c, 0x01, 0x00, 0x00, 0xdc, 0x00, 0x00, 0x00, 
  0x60, 0x00, 0x00, 0x00, 0x04, 0x00, 0x00, 0x00, 0x06, 0xf8, 0xff, 0xff, 
  0x00, 0x00, 0x00, 0x01, 0x14, 0x00, 0x00, 0x00, 0x1c, 0x00, 0x00, 0x00, 
  0x1c, 0x00, 0x00, 0x00, 0x12, 0x00, 0x00, 0x00, 0x34, 0x00, 0x00, 0x00, 
  0x02, 0x00, 0x00, 0x00, 0xff, 0xff, 0xff, 0xff, 0x04, 0x00, 0x00, 0x00, 
  0x60, 0xf7, 0xff, 0xff, 0x1b, 0x00, 0x00, 0x00, 0x53, 0x74, 0x61, 0x74, 
  0x65, 0x66, 0x75, 0x6c, 0x50, 0x61, 0x72, 0x74, 0x69, 0x74, 0x69, 0x6f, 
  0x6e, 0x65, 0x64, 0x43, 0x61, 0x6c, 0x6c, 0x5f, 0x31, 0x3a, 0x30, 0x00, 
  0x02, 0x00, 0x00, 0x00, 0x01, 0x00, 0x00, 0x00, 0x04, 0x00, 0x00, 0x00, 
  0x5e, 0xf8, 0xff, 0xff, 0x00, 0x00, 0x00, 0x01, 0x14, 0x00, 0x00, 0x00, 
  0x1c, 0x00, 0x00, 0x00, 0x1c, 0x00, 0x00, 0x00, 0x11, 0x00, 0x00, 0x00, 
  0x54, 0x00, 0x00, 0x00, 0x02, 0x00, 0x00, 0x00, 0xff, 0xff, 0xff, 0xff, 
  0x04, 0x00, 0x00, 0x00, 0xb8, 0xf7, 0xff, 0xff, 0x38, 0x00, 0x00, 0x00, 
  0x73, 0x65, 0x71, 0x75, 0x65, 0x6e, 0x74, 0x69, 0x61, 0x6c, 0x5f, 0x31, 
  0x2f, 0x64, 0x65, 0x6e, 0x73, 0x65, 0x5f, 0x31, 0x2f, 0x4d, 0x61, 0x74, 
  0x4d, 0x75, 0x6c, 0x3b, 0x73, 0x65, 0x71, 0x75, 0x65, 0x6e, 0x74, 0x69, 
  0x61, 0x6c, 0x5f, 0x31, 0x2f, 0x64, 0x65, 0x6e, 0x73, 0x65, 0x5f, 0x31, 
  0x2f, 0x42, 0x69, 0x61, 0x73, 0x41, 0x64, 0x64, 0x00, 0x00, 0x00, 0x00, 
  0x02, 0x00, 0x00, 0x00, 0x01, 0x00, 0x00, 0x00, 0x04, 0x00, 0x00, 0x00, 
  0xd6, 0xf8, 0xff, 0xff, 0x00, 0x00, 0x00, 0x01, 0x14, 0x00, 0x00, 0x00, 
  0x1c, 0x00, 0x00, 0x00, 0x1c, 0x00, 0x00, 0x00, 0x10, 0x00, 0x00, 0x00, 
  0x48, 0x00, 0x00, 0x00, 0x02, 0x00, 0x00, 0x00, 0xff, 0xff, 0xff, 0xff, 
  0x20, 0x00, 0x00, 0x00, 0x30, 0xf8, 0xff, 0xff, 0x2c, 0x00, 0x00, 0x00, 
  0x73, 0x65, 0x71, 0x75, 0x65, 0x6e, 0x74, 0x69, 0x61, 0x6c, 0x5f, 0x31, 
  0x2f, 0x67, 0x6c, 0x6f, 0x62, 0x61, 0x6c, 0x5f, 0x61, 0x76, 0x65, 0x72, 
  0x61, 0x67, 0x65, 0x5f, 0x70, 0x6f, 0x6f, 0x6c, 0x69, 0x6e, 0x67, 0x31, 
  0x64, 0x5f, 0x31, 0x2f, 0x4d, 0x65, 0x61, 0x6e, 0x00, 0x00, 0x00, 0x00, 
  0x02, 0x00, 0x00, 0x00, 0x01, 0x00, 0x00, 0x00, 0x20, 0x00, 0x00, 0x00, 
  0x42, 0xf9, 0xff, 0xff, 0x00, 0x00, 0x00, 0x01, 0x14, 0x00, 0x00, 0x00, 
  0x20, 0x00, 0x00, 0x00, 0x20, 0x00, 0x00, 0x00, 0x0f, 0x00, 0x00, 0x00, 
  0xe8, 0x00, 0x00, 0x00, 0x03, 0x00, 0x00, 0x00, 0xff, 0xff, 0xff, 0xff, 
  0xc4, 0x00, 0x00, 0x00, 0x20, 0x00, 0x00, 0x00, 0xa0, 0xf8, 0xff, 0xff, 
  0xca, 0x00, 0x00, 0x00, 0x73, 0x65, 0x71, 0x75, 0x65, 0x6e, 0x74, 0x69, 
  0x61, 0x6c, 0x5f, 0x31, 0x2f, 0x62, 0x61, 0x74, 0x63, 0x68, 0x5f, 0x6e, 
  0x6f, 0x72, 0x6d, 0x61, 0x6c, 0x69, 0x7a, 0x61, 0x74, 0x69, 0x6f, 0x6e, 
  0x5f, 0x31, 0x2f, 0x62, 0x61, 0x74, 0x63, 0x68, 0x6e, 0x6f, 0x72, 0x6d, 
  0x2f, 0x61, 0x64, 0x64, 0x5f, 0x31, 0x3b, 0x73, 0x65, 0x71, 0x75, 0x65, 
  0x6e, 0x74, 0x69, 0x61, 0x6c, 0x5f, 0x31, 0x2f, 0x63, 0x6f, 0x6e, 0x76, 
  0x31, 0x64, 0x5f, 0x31, 0x2f, 0x63, 0x6f, 0x6e, 0x76, 0x6f, 0x6c, 0x75, 
  0x74, 0x69, 0x6f, 0x6e, 0x2f, 0x53, 0x71, 0x75, 0x65, 0x65, 0x7a, 0x65, 
  0x3b, 0x73, 0x65, 0x71, 0x75, 0x65, 0x6e, 0x74, 0x69, 0x61, 0x6c, 0x5f, 
  0x31, 0x2f, 0x62, 0x61, 0x74, 0x63, 0x68, 0x5f, 0x6e, 0x6f, 0x72, 0x6d, 
  0x61, 0x6c, 0x69, 0x7a, 0x61, 0x74, 0x69, 0x6f, 0x6e, 0x5f, 0x31, 0x2f, 
  0x62, 0x61, 0x74, 0x63, 0x68, 0x6e, 0x6f, 0x72, 0x6d, 0x2f, 0x6d, 0x75, 
  0x6c, 0x5f, 0x31, 0x3b, 0x73, 0x65, 0x71, 0x75, 0x65, 0x6e, 0x74, 0x69, 
  0x61, 0x6c, 0x5f, 0x31, 0x2f, 0x63, 0x6f, 0x6e, 0x76, 0x31, 0x64, 0x5f, 
  0x31, 0x2f, 0x52, 0x65, 0x6c, 0x75, 0x3b, 0x73, 0x65, 0x71, 0x75, 0x65, 
  0x6e, 0x74, 0x69, 0x61, 0x6c, 0x5f, 0x31, 0x2f, 0x63, 0x6f, 0x6e, 0x76, 
  0x31, 0x64, 0x5f, 0x31, 0x2f, 0x42, 0x69, 0x61, 0x73, 0x41, 0x64, 0x64, 
  0x3b, 0x31, 0x00, 0x00, 0x03, 0x00, 0x00, 0x00, 0x01, 0x00, 0x00, 0x00, 
  0xc4, 0x00, 0x00, 0x00, 0x20, 0x00, 0x00, 0x00, 0x52, 0xfa, 0xff, 0xff, 
  0x00, 0x00, 0x00, 0x01, 0x14, 0x00, 0x00, 0x00, 0x24, 0x00, 0x00, 0x00, 
  0x24, 0x00, 0x00, 0x00, 0x0e, 0x00, 0x00, 0x00, 0xec, 0x00, 0x00, 0x00, 
  0x04, 0x00, 0x00, 0x00, 0xff, 0xff, 0xff, 0xff, 0x01, 0x00, 0x00, 0x00, 
  0xc4, 0x00, 0x00, 0x00, 0x20, 0x00, 0x00, 0x00, 0xb4, 0xf9, 0xff, 0xff, 
  0xc9, 0x00, 0x00, 0x00, 0x73, 0x65, 0x71, 0x75, 0x65, 0x6e, 0x74, 0x69, 
  0x61, 0x6c, 0x5f, 0x31, 0x2f, 0x62, 0x61, 0x74, 0x63, 0x68, 0x5f, 0x6e, 
  0x6f, 0x72, 0x6d, 0x61, 0x6c, 0x69, 0x7a, 0x61, 0x74, 0x69, 0x6f, 0x6e, 
  0x5f, 0x31, 0x2f, 0x62, 0x61, 0x74, 0x63, 0x68, 0x6e, 0x6f, 0x72, 0x6d, 
  0x2f, 0x61, 0x64, 0x64, 0x5f, 0x31, 0x3b, 0x73, 0x65, 0x71, 0x75, 0x65, 
  0x6e, 0x74, 0x69, 0x61, 0x6c, 0x5f, 0x31, 0x2f, 0x63, 0x6f, 0x6e, 0x76, 
  0x31, 0x64, 0x5f, 0x31, 0x2f, 0x63, 0x6f, 0x6e, 0x76, 0x6f, 0x6c, 0x75, 
  0x74, 0x69, 0x6f, 0x6e, 0x2f, 0x53, 0x71, 0x75, 0x65, 0x65, 0x7a, 0x65, 
  0x3b, 0x73, 0x65, 0x71, 0x75, 0x65, 0x6e, 0x74, 0x69, 0x61, 0x6c, 0x5f, 
  0x31, 0x2f, 0x62, 0x61, 0x74, 0x63, 0x68, 0x5f, 0x6e, 0x6f, 0x72, 0x6d, 
  0x61, 0x6c, 0x69, 0x7a, 0x61, 0x74, 0x69, 0x6f, 0x6e, 0x5f, 0x31, 0x2f, 
  0x62, 0x61, 0x74, 0x63, 0x68, 0x6e, 0x6f, 0x72, 0x6d, 0x2f, 0x6d, 0x75, 
  0x6c, 0x5f, 0x31, 0x3b, 0x73, 0x65, 0x71, 0x75, 0x65, 0x6e, 0x74, 0x69, 
  0x61, 0x6c, 0x5f, 0x31, 0x2f, 0x63, 0x6f, 0x6e, 0x76, 0x31, 0x64, 0x5f, 
  0x31, 0x2f, 0x52, 0x65, 0x6c, 0x75, 0x3b, 0x73, 0x65, 0x71, 0x75, 0x65, 
  0x6e, 0x74, 0x69, 0x61, 0x6c, 0x5f, 0x31, 0x2f, 0x63, 0x6f, 0x6e, 0x76, 
  0x31, 0x64, 0x5f, 0x31, 0x2f, 0x42, 0x69, 0x61, 0x73, 0x41, 0x64, 0x64, 
  0x3b, 0x00, 0x00, 0x00, 0x04, 0x00, 0x00, 0x00, 0x01, 0x00, 0x00, 0x00, 
  0x01, 0x00, 0x00, 0x00, 0xc4, 0x00, 0x00, 0x00, 0x20, 0x00, 0x00, 0x00, 
  0x6a, 0xfb, 0xff, 0xff, 0x00, 0x00, 0x00, 0x01, 0x14, 0x00, 0x00, 0x00, 
  0x24, 0x00, 0x00, 0x00, 0x24, 0x00, 0x00, 0x00, 0x0d, 0x00, 0x00, 0x00, 
  0xb8, 0x00, 0x00, 0x00, 0x04, 0x00, 0x00, 0x00, 0xff, 0xff, 0xff, 0xff, 
  0x01, 0x00, 0x00, 0x00, 0xc4, 0x00, 0x00, 0x00, 0x20, 0x00, 0x00, 0x00, 
  0xcc, 0xfa, 0xff, 0xff, 0x96, 0x00, 0x00, 0x00, 0x73, 0x65, 0x71, 0x75, 
  0x65, 0x6e, 0x74, 0x69, 0x61, 0x6c, 0x5f, 0x31, 0x2f, 0x62, 0x61, 0x74, 
  0x63, 0x68, 0x5f, 0x6e, 0x6f, 0x72, 0x6d, 0x61, 0x6c, 0x69, 0x7a, 0x61, 
  0x74, 0x69, 0x6f, 0x6e, 0x5f, 0x31, 0x2f, 0x62, 0x61, 0x74, 0x63, 0x68, 
  0x6e, 0x6f, 0x72, 0x6d, 0x2f, 0x6d, 0x75, 0x6c, 0x5f, 0x31, 0x3b, 0x73, 
  0x65, 0x71, 0x75, 0x65, 0x6e, 0x74, 0x69, 0x61, 0x6c, 0x5f, 0x31, 0x2f, 
  0x63, 0x6f, 0x6e, 0x76, 0x31, 0x64, 0x5f, 0x31, 0x2f, 0x63, 0x6f, 0x6e, 
  0x76, 0x6f, 0x6c, 0x75, 0x74, 0x69, 0x6f, 0x6e, 0x2f, 0x53, 0x71, 0x75, 
  0x65, 0x65, 0x7a, 0x65, 0x3b, 0x73, 0x65, 0x71, 0x75, 0x65, 0x6e, 0x74, 
  0x69, 0x61, 0x6c, 0x5f, 0x31, 0x2f, 0x63, 0x6f, 0x6e, 0x76, 0x31, 0x64, 
  0x5f, 0x31, 0x2f, 0x52, 0x65, 0x6c, 0x75, 0x3b, 0x73, 0x65, 0x71, 0x75, 
  0x65, 0x6e, 0x74, 0x69, 0x61, 0x6c, 0x5f, 0x31, 0x2f, 0x63, 0x6f, 0x6e, 
  0x76, 0x31, 0x64, 0x5f, 0x31, 0x2f, 0x42, 0x69, 0x61, 0x73, 0x41, 0x64, 
  0x64, 0x3b, 0x00, 0x00, 0x04, 0x00, 0x00, 0x00, 0x01, 0x00, 0x00, 0x00, 
  0x01, 0x00, 0x00, 0x00, 0xc4, 0x00, 0x00, 0x00, 0x20, 0x00, 0x00, 0x00, 
  0x4e, 0xfc, 0xff, 0xff, 0x00, 0x00, 0x00, 0x01, 0x14, 0x00, 0x00, 0x00, 
  0x24, 0x00, 0x00, 0x00, 0x24, 0x00, 0x00, 0x00, 0x0c, 0x00, 0x00, 0x00, 
  0xa8, 0x00, 0x00, 0x00, 0x04, 0x00, 0x00, 0x00, 0xff, 0xff, 0xff, 0xff, 
  0x01, 0x00, 0x00, 0x00, 0xc4, 0x00, 0x00, 0x00, 0x20, 0x00, 0x00, 0x00, 
  0xb0, 0xfb, 0xff, 0xff, 0x85, 0x00, 0x00, 0x00, 0x73, 0x65, 0x71, 0x75, 
  0x65, 0x6e, 0x74, 0x69, 0x61, 0x6c, 0x5f, 0x31, 0x2f, 0x63, 0x6f, 0x6e, 
  0x76, 0x31, 0x64, 0x5f, 0x31, 0x2f, 0x52, 0x65, 0x6c, 0x75, 0x3b, 0x73, 
  0x65, 0x71, 0x75, 0x65, 0x6e, 0x74, 0x69, 0x61, 0x6c, 0x5f, 0x31, 0x2f, 
  0x63, 0x6f, 0x6e, 0x76, 0x31, 0x64, 0x5f, 0x31, 0x2f, 0x42, 0x69, 0x61, 
  0x73, 0x41, 0x64, 0x64, 0x3b, 0x73, 0x65, 0x71, 0x75, 0x65, 0x6e, 0x74, 
  0x69, 0x61, 0x6c, 0x5f, 0x31, 0x2f, 0x63, 0x6f, 0x6e, 0x76, 0x31, 0x64, 
  0x5f, 0x31, 0x2f, 0x63, 0x6f, 0x6e, 0x76, 0x6f, 0x6c, 0x75, 0x74, 0x69, 
  0x6f, 0x6e, 0x2f, 0x53, 0x71, 0x75, 0x65, 0x65, 0x7a, 0x65, 0x3b, 0x3b, 
  0x73, 0x65, 0x71, 0x75, 0x65, 0x6e, 0x74, 0x69, 0x61, 0x6c, 0x5f, 0x31, 
  0x2f, 0x63, 0x6f, 0x6e, 0x76, 0x31, 0x64, 0x5f, 0x31, 0x2f, 0x63, 0x6f, 
  0x6e, 0x76, 0x6f, 0x6c, 0x75, 0x74, 0x69, 0x6f, 0x6e, 0x00, 0x00, 0x00, 
  0x04, 0x00, 0x00, 0x00, 0x01, 0x00, 0x00, 0x00, 0x01, 0x00, 0x00, 0x00, 
  0xc4, 0x00, 0x00, 0x00, 0x20, 0x00, 0x00, 0x00, 0x22, 0xfd, 0xff, 0xff, 
  0x00, 0x00, 0x00, 0x01, 0x14, 0x00, 0x00, 0x00, 0x24, 0x00, 0x00, 0x00, 
  0x24, 0x00, 0x00, 0x00, 0x0b, 0x00, 0x00, 0x00, 0x50, 0x00, 0x00, 0x00, 
  0x04, 0x00, 0x00, 0x00, 0xff, 0xff, 0xff, 0xff, 0x01, 0x00, 0x00, 0x00, 
  0xc8, 0x00, 0x00, 0x00, 0x06, 0x00, 0x00, 0x00, 0x84, 0xfc, 0xff, 0xff, 
  0x2c, 0x00, 0x00, 0x00, 0x73, 0x65, 0x71, 0x75, 0x65, 0x6e, 0x74, 0x69, 
  0x61, 0x6c, 0x5f, 0x31, 0x2f, 0x63, 0x6f, 0x6e, 0x76, 0x31, 0x64, 0x5f, 
  0x31, 0x2f, 0x63, 0x6f, 0x6e, 0x76, 0x6f, 0x6c, 0x75, 0x74, 0x69, 0x6f, 
  0x6e, 0x2f, 0x45, 0x78, 0x70, 0x61, 0x6e, 0x64, 0x44, 0x69, 0x6d, 0x73, 
  0x00, 0x00, 0x00, 0x00, 0x04, 0x00, 0x00, 0x00, 0x01, 0x00, 0x00, 0x00, 
  0x01, 0x00, 0x00, 0x00, 0xc8, 0x00, 0x00, 0x00, 0x06, 0x00, 0x00, 0x00, 
  0x7a, 0xfe, 0xff, 0xff, 0x00, 0x00, 0x00, 0x01, 0x14, 0x00, 0x00, 0x00, 
  0x14, 0x00, 0x00, 0x00, 0x0a, 0x00, 0x00, 0x00, 0x00, 0x00, 0x00, 0x02, 
  0x40, 0x00, 0x00, 0x00, 0xec, 0xfc, 0xff, 0xff, 0x30, 0x00, 0x00, 0x00, 
  0x73, 0x65, 0x71, 0x75, 0x65, 0x6e, 0x74, 0x69, 0x61, 0x6c, 0x5f, 0x31, 
  0x2f, 0x63, 0x6f, 0x6e, 0x76, 0x31, 0x64, 0x5f, 0x31, 0x2f, 0x63, 0x6f, 
  0x6e, 0x76, 0x6f, 0x6c, 0x75, 0x74, 0x69, 0x6f, 0x6e, 0x2f, 0x45, 0x78, 
  0x70, 0x61, 0x6e, 0x64, 0x44, 0x69, 0x6d, 0x73, 0x2f, 0x64, 0x69, 0x6d, 
  0x00, 0x00, 0x00, 0x00, 0x00, 0x00, 0x00, 0x00, 0xd6, 0xfe, 0xff, 0xff, 
  0x00, 0x00, 0x00, 0x01, 0x14, 0x00, 0x00, 0x00, 0x14, 0x00, 0x00, 0x00, 
  0x09, 0x00, 0x00, 0x00, 0x00, 0x00, 0x00, 0x02, 0x1c, 0x00, 0x00, 0x00, 
  0x48, 0xfd, 0xff, 0xff, 0x0f, 0x00, 0x00, 0x00, 0x61, 0x72, 0x69, 0x74, 
  0x68, 0x2e, 0x63, 0x6f, 0x6e, 0x73, 0x74, 0x61, 0x6e, 0x74, 0x37, 0x00, 
  0x00, 0x00, 0x00, 0x00, 0x82, 0xfe, 0xff, 0xff, 0x00, 0x00, 0x00, 0x01, 
  0x10, 0x00, 0x00, 0x00, 0x10, 0x00, 0x00, 0x00, 0x08, 0x00, 0x00, 0x00, 
  0x1c, 0x00, 0x00, 0x00, 0x7c, 0xfd, 0xff, 0xff, 0x0f, 0x00, 0x00, 0x00, 
  0x61, 0x72, 0x69, 0x74, 0x68, 0x2e, 0x63, 0x6f, 0x6e, 0x73, 0x74, 0x61, 
  0x6e, 0x74, 0x36, 0x00, 0x01, 0x00, 0x00, 0x00, 0x20, 0x00, 0x00, 0x00, 
  0xba, 0xfe, 0xff, 0xff, 0x00, 0x00, 0x00, 0x01, 0x10, 0x00, 0x00, 0x00, 
  0x10, 0x00, 0x00, 0x00, 0x07, 0x00, 0x00, 0x00, 0x1c, 0x00, 0x00, 0x00, 
  0xb4, 0xfd, 0xff, 0xff, 0x0f, 0x00, 0x00, 0x00, 0x61, 0x72, 0x69, 0x74, 
  0x68, 0x2e, 0x63, 0x6f, 0x6e, 0x73, 0x74, 0x61, 0x6e, 0x74, 0x35, 0x00, 
  0x01, 0x00, 0x00, 0x00, 0x20, 0x00, 0x00, 0x00, 0xf2, 0xfe, 0xff, 0xff, 
  0x00, 0x00, 0x00, 0x01, 0x10, 0x00, 0x00, 0x00, 0x10, 0x00, 0x00, 0x00, 
  0x06, 0x00, 0x00, 0x00, 0x1c, 0x00, 0x00, 0x00, 0xec, 0xfd, 0xff, 0xff, 
  0x0f, 0x00, 0x00, 0x00, 0x61, 0x72, 0x69, 0x74, 0x68, 0x2e, 0x63, 0x6f, 
  0x6e, 0x73, 0x74, 0x61, 0x6e, 0x74, 0x34, 0x00, 0x02, 0x00, 0x00, 0x00, 
  0x04, 0x00, 0x00, 0x00, 0x20, 0x00, 0x00, 0x00, 0x2e, 0xff, 0xff, 0xff, 
  0x00, 0x00, 0x00, 0x01, 0x10, 0x00, 0x00, 0x00, 0x10, 0x00, 0x00, 0x00, 
  0x05, 0x00, 0x00, 0x00, 0x1c, 0x00, 0x00, 0x00, 0x28, 0xfe, 0xff, 0xff, 
  0x0f, 0x00, 0x00, 0x00, 0x61, 0x72, 0x69, 0x74, 0x68, 0x2e, 0x63, 0x6f, 
  0x6e, 0x73, 0x74, 0x61, 0x6e, 0x74, 0x33, 0x00, 0x04, 0x00, 0x00, 0x00, 
  0x20, 0x00, 0x00, 0x00, 0x01, 0x00, 0x00, 0x00, 0x05, 0x00, 0x00, 0x00, 
  0x06, 0x00, 0x00, 0x00, 0x00, 0x00, 0x16, 0x00, 0x1c, 0x00, 0x18, 0x00, 
  0x17, 0x00, 0x10, 0x00, 0x0c, 0x00, 0x08, 0x00, 0x00, 0x00, 0x00, 0x00, 
  0x00, 0x00, 0x07, 0x00, 0x16, 0x00, 0x00, 0x00, 0x00, 0x00, 0x00, 0x01, 
  0x14, 0x00, 0x00, 0x00, 0x14, 0x00, 0x00, 0x00, 0x04, 0x00, 0x00, 0x00, 
  0x00, 0x00, 0x00, 0x02, 0x1c, 0x00, 0x00, 0x00, 0x88, 0xfe, 0xff, 0xff, 
  0x0f, 0x00, 0x00, 0x00, 0x61, 0x72, 0x69, 0x74, 0x68, 0x2e, 0x63, 0x6f, 
  0x6e, 0x73, 0x74, 0x61, 0x6e, 0x74, 0x32, 0x00, 0x01, 0x00, 0x00, 0x00, 
  0x03, 0x00, 0x00, 0x00, 0xc6, 0xff, 0xff, 0xff, 0x00, 0x00, 0x00, 0x01, 
  0x10, 0x00, 0x00, 0x00, 0x10, 0x00, 0x00, 0x00, 0x03, 0x00, 0x00, 0x00, 
  0x1c, 0x00, 0x00, 0x00, 0xc0, 0xfe, 0xff, 0xff, 0x0f, 0x00, 0x00, 0x00, 
  0x61, 0x72, 0x69, 0x74, 0x68, 0x2e, 0x63, 0x6f, 0x6e, 0x73, 0x74, 0x61, 
  0x6e, 0x74, 0x31, 0x00, 0x01, 0x00, 0x00, 0x00, 0x04, 0x00, 0x00, 0x00, 
  0x00, 0x00, 0x16, 0x00, 0x18, 0x00, 0x14, 0x00, 0x00, 0x00, 0x10, 0x00, 
  0x0c, 0x00, 0x08, 0x00, 0x00, 0x00, 0x00, 0x00, 0x00, 0x00, 0x07, 0x00, 
  0x16, 0x00, 0x00, 0x00, 0x00, 0x00, 0x00, 0x01, 0x10, 0x00, 0x00, 0x00, 
  0x10, 0x00, 0x00, 0x00, 0x02, 0x00, 0x00, 0x00, 0x1c, 0x00, 0x00, 0x00, 
  0x10, 0xff, 0xff, 0xff, 0x0e, 0x00, 0x00, 0x00, 0x61, 0x72, 0x69, 0x74, 
  0x68, 0x2e, 0x63, 0x6f, 0x6e, 0x73, 0x74, 0x61, 0x6e, 0x74, 0x00, 0x00, 
  0x01, 0x00, 0x00, 0x00, 0x20, 0x00, 0x00, 0x00, 0x00, 0x00, 0x16, 0x00, 
  0x1c, 0x00, 0x18, 0x00, 0x00, 0x00, 0x14, 0x00, 0x10, 0x00, 0x0c, 0x00, 
  0x00, 0x00, 0x00, 0x00, 0x08, 0x00, 0x07, 0x00, 0x16, 0x00, 0x00, 0x00, 
  0x00, 0x00, 0x00, 0x01, 0x14, 0x00, 0x00, 0x00, 0x20, 0x00, 0x00, 0x00, 
  0x20, 0x00, 0x00, 0x00, 0x01, 0x00, 0x00, 0x00, 0x3c, 0x00, 0x00, 0x00, 
  0x03, 0x00, 0x00, 0x00, 0xff, 0xff, 0xff, 0xff, 0xc8, 0x00, 0x00, 0x00, 
  0x06, 0x00, 0x00, 0x00, 0x74, 0xff, 0xff, 0xff, 0x1e, 0x00, 0x00, 0x00, 
  0x73, 0x65, 0x72, 0x76, 0x69, 0x6e, 0x67, 0x5f, 0x64, 0x65, 0x66, 0x61, 
  0x75, 0x6c, 0x74, 0x5f, 0x6b, 0x65, 0x72, 0x61, 0x73, 0x5f, 0x74, 0x65, 
  0x6e, 0x73, 0x6f, 0x72, 0x3a, 0x30, 0x00, 0x00, 0x03, 0x00, 0x00, 0x00, 
  0x01, 0x00, 0x00, 0x00, 0xc8, 0x00, 0x00, 0x00, 0x06, 0x00, 0x00, 0x00, 
  0x08, 0x00, 0x00, 0x00, 0x7c, 0x00, 0x00, 0x00, 0x60, 0x00, 0x00, 0x00, 
  0x50, 0x00, 0x00, 0x00, 0x48, 0x00, 0x00, 0x00, 0x34, 0x00, 0x00, 0x00, 
  0x24, 0x00, 0x00, 0x00, 0x14, 0x00, 0x00, 0x00, 0x04, 0x00, 0x00, 0x00, 
  0xb0, 0xff, 0xff, 0xff, 0x19, 0x00, 0x00, 0x00, 0x00, 0x00, 0x00, 0x19, 
  0xbc, 0xff, 0xff, 0xff, 0x09, 0x00, 0x00, 0x00, 0x00, 0x00, 0x00, 0x09, 
  0xc8, 0xff, 0xff, 0xff, 0x28, 0x00, 0x00, 0x00, 0x00, 0x00, 0x00, 0x28, 
  0xd4, 0xff, 0xff, 0xff, 0x16, 0x00, 0x00, 0x00, 0x00, 0x00, 0x00, 0x16, 
  0x04, 0x00, 0x04, 0x00, 0x04, 0x00, 0x00, 0x00, 0xe8, 0xff, 0xff, 0xff, 
  0x12, 0x00, 0x00, 0x00, 0x00, 0x00, 0x00, 0x12, 0xf4, 0xff, 0xff, 0xff, 
  0x03, 0x00, 0x00, 0x00, 0x00, 0x00, 0x00, 0x03, 0x0c, 0x00, 0x0c, 0x00, 
  0x0b, 0x00, 0x00, 0x00, 0x00, 0x00, 0x04, 0x00, 0x0c, 0x00, 0x00, 0x00, 
  0x46, 0x00, 0x00, 0x00, 0x00, 0x00, 0x00, 0x46, 
};
